[PAD]
[UNK]
[CLS]
[SEP]
[MASK]
<S>
<T>
!
#
$
%
&
'
(
)
*
+
,
-
.
/
0
1
2
3
4
5
6
7
8
9
:
;
<
=
>
?
@
[
\
]
^
_
`
a
b
c
d
e
f
g
h
i
j
k
l
m
n
o
p
q
r
s
t
u
v
w
x
y
z
{
|
}
~
##i
##m
##o
##u
##l
##d
##t
##h
##e
##n
##a
##s
##c
##r
##z
##x
##v
##p
##y
##g
##k
##b
##2
##4
##0
##w
##f
##j
##9
##1
##q
##8
##7
##6
##5
##3
##he
the
##in
##er
##ed
##ou
##nd
##ing
to
##at
##re
th
##is
and
##as
##en
##an
##on
##ll
he
##ar
##or
##es
of
in
##it
ha
##om
you
##ow
be
her
##id
##ut
was
it
##ot
##le
##ld
##ac
##gh
on
she
##et
st
his
that
##ly
##im
##ay
##st
##ve
##ic
wh
as
re
my
me
##ad
##al
##se
##oo
##ver
##ght
##ould
##ur
##ith
##ir
for
with
##ent
do
an
##ke
had
li
at
sh
##am
we
but
##ion
him
##all
fr
##her
se
sa
not
##ter
##ight
##ked
##pp
ne
##ro
##ack
so
##ain
##ch
##ill
##ant
##ce
##il
kn
out
what
##ore
##el
is
up
##out
##ust
##rou
##ri
whe
have
##ome
said
they
no
##hing
##ard
this
ch
from
go
su
did
ab
##ra
##ct
le
##nt
##king
all
##ere
##ie
de
al
##us
##one
could
##ind
loo
back
would
were
##to
##hed
like
fe
if
##ess
##art
##ge
##own
##est
one
cl
there
##un
##ood
sp
con
##ss
just
ag
into
##ab
##ast
##au
when
wor
ex
know
##ers
##ry
ro
##ide
about
##ep
##ck
##ace
##and
bl
or
##ally
hand
##ake
then
##um
see
them
your
want
##way
over
##ul
te
any
##op
are
##ong
##lf
ey
been
##ist
##ate
sm
get
##ven
tim
##ap
pl
down
lo
co
ever
some
mo
too
##ig
##ame
bo
again
##urn
##ft
thou
com
##are
who
##round
man
off
##ation
##ice
ar
br
time
now
how
##ink
fl
by
##ff
po
##ous
eyes
##ag
us
head
qu
more
##ick
##ive
##ort
##ine
##ull
can
sl
en
##ak
sc
tr
##pped
##ect
##ther
##other
tw
##ound
##os
than
un
##our
##nder
##itt
##self
even
their
##ved
way
im
##fore
##led
##ile
##dd
before
gr
##ire
every
around
will
##reat
say
going
other
##ass
##ure
pre
##ving
pro
here
af
som
right
##th
##ade
somet
only
think
##rough
bec
turn
through
need
gl
##ue
##ip
looked
##ear
##ered
##ose
look
pr
##fe
let
thought
##ite
should
sw
thing
##ward
##act
##iss
still
away
after
##ol
gu
kne
something
face
##thing
am
door
##pt
mu
##ont
exp
##ity
##ies
good
##ause
long
##ang
never
##ment
wat
ac
##ened
pe
wa
##ach
##dy
##iz
bet
feel
ll
##ble
got
well
asked
where
che
##able
car
##ark
two
##ree
op
##ated
fo
##wn
##ance
##ell
fir
arm
made
##ched
why
##ich
much
ve
##med
##ave
##ather
##ious
our
because
tell
##ting
rem
room
knew
dis
##ittle
##age
##aking
##ath
under
little
ho
mom
##te
##ady
##ning
##ough
day
cr
ke
make
##ery
come
##co
take
##elt
##gg
call
happ
wal
em
may
##ried
##ase
##ful
##ks
first
##ress
cont
##side
##be
##ru
##air
vo
##ber
its
felt
jo
##ence
sure
wo
ca
##ves
start
hands
tal
##ied
##ans
##ared
hel
pull
wanted
took
##ah
comp
##int
turned
##em
night
el
app
really
sk
##ling
##ps
des
per
mar
##oth
try
##ild
##ily
against
voice
ad
sur
has
##uck
##ia
part
res
bel
##ud
hard
fin
##qu
peop
real
##ced
left
which
##ens
##bb
very
beh
cou
help
people
came
told
another
##ds
last
put
##owed
##ise
side
life
##een
##ook
##ish
##ross
while
body
wom
wait
##ty
find
few
##av
sn
gra
spe
anything
rep
moment
yes
##az
being
##les
new
##hes
war
breat
nothing
##ned
##get
ph
##xt
str
behind
own
di
ste
keep
unt
##ions
year
enough
toward
went
light
lau
does
mat
might
##ouse
saw
wr
hair
bed
dr
##ci
##igh
##per
dark
beg
clos
sound
gir
hu
old
things
until
love
mind
cle
id
##outh
##ways
though
##ars
bu
maybe
those
set
##amp
##ching
##ail
open
##ys
end
act
##aring
looking
fing
##ness
once
##ng
##ord
##orm
##ost
most
##ince
##ream
care
##ne
##iend
both
gi
girl
friend
##ool
always
ass
next
##dded
##ons
##cked
##ner
place
sil
att
cur
min
hold
##ower
imp
oh
kill
smil
house
mouth
sat
inside
run
found
front
##row
ple
##ted
heart
inst
without
dec
ser
gre
##less
##ating
home
##ian
rel
blood
same
work
##ory
##aw
everything
rest
##ually
himself
someone
stand
inter
sho
small
##ary
woman
hop
bit
bre
##sw
trying
better
heard
ok
arms
pulled
flo
cor
ret
dra
cour
betw
each
between
father
stre
give
##ised
kiss
mean
wind
##cond
seemed
black
mother
##ier
deep
##ung
smile
##red
second
answ
##pping
##ange
##if
##tered
far
ang
alm
##tain
across
##ably
##sp
fam
pain
stop
hur
myself
sto
three
##ready
##sh
##used
dri
since
pass
already
##ever
sle
##aught
point
started
##ump
almost
quick
gave
stu
breath
##ict
dont
years
belie
must
stay
##ached
stood
men
kind
##ank
##ix
else
remem
air
ear
mor
done
wall
dro
okay
##ors
foll
doing
##gether
hell
tried
##umb
tra
ob
world
##ible
##ings
lips
close
##ane
walked
words
big
hum
ev
tou
mon
slow
minut
##ater
together
##rew
##ized
feet
nodded
sig
ye
##ott
##so
##ple
##ense
didnt
fre
##ushed
wonder
held
near
##ph
seen
met
many
miss
##ured
tre
these
lot
ra
quest
underst
##ully
##anc
##ash
bar
##ently
diff
ma
int
supp
##gs
##irt
##ason
sim
whis
pers
ent
##ond
##icked
##inking
hear
##pr
play
yet
talk
says
move
conf
##ither
bad
##akes
##ows
floor
water
leave
expl
ed
smiled
mr
##day
##ib
sor
aw
##iv
red
##ained
##gn
inc
dam
great
gone
step
##gged
##owing
herself
table
##ying
##ub
acc
eas
##ek
fingers
##iet
past
chest
hour
needed
char
##ention
prob
##der
##iver
began
dist
##here
##ny
##aced
##ished
name
##ift
cons
also
##ected
swe
shook
getting
lu
half
##ept
##rie
called
along
yeah
##cept
##ately
ter
bro
soon
fore
course
soft
ben
coming
bus
finally
##dden
fall
probably
ide
dead
child
pa
##ical
such
sudden
comm
inv
##ined
god
lean
least
##bo
best
cra
moved
happened
stra
pat
high
##ren
col
poss
return
contin
##ction
person
##ering
##ush
eye
reached
sorry
believe
resp
skin
##ms
white
later
fire
phone
stopped
gaz
##na
##bbed
boy
tight
list
making
feeling
##idd
dem
jack
ask
surpr
##ipped
##ition
opened
press
ap
meet
anyone
##ged
ran
used
##itting
sit
je
inf
family
sleep
remember
ind
understand
##ters
##ening
##ret
##ual
everyone
plan
hor
##vel
##iously
idea
sec
hot
dire
##ided
fact
##fully
brother
taking
cover
differ
morning
##arent
shoulder
cut
mag
forward
ground
bes
neck
fight
cat
##aps
lar
kept
power
##ins
read
hurt
dad
comple
top
##anced
##room
reg
##cer
young
quiet
clear
##aut
perf
quickly
repl
days
rec
##lo
four
##oke
##head
vis
##che
prot
##ued
roll
##aken
guy
slowly
##sc
able
ref
##ize
##cc
use
alone
del
##no
par
exc
wrong
lea
onto
##iness
##ents
##og
thinking
having
closed
ru
cap
ready
##uth
laugh
full
please
mine
##ial
stared
dress
sch
sun
talking
det
fell
##ically
question
hit
either
coll
watched
##mm
thro
lift
pol
##ount
fill
minutes
##fort
mem
##cking
whisp
beaut
bab
ty
fine
##airs
pret
##ead
cal
tri
fig
actually
outside
##ult
##ister
##app
chap
hall
dou
##ghed
##where
##ets
cold
##ton
cer
matter
suddenly
guess
pur
vamp
har
##ger
ill
glass
word
lost
gaze
##up
lou
ele
##oney
king
mus
hope
sy
reason
standing
mur
low
hes
##ife
appear
bur
##que
prom
short
##ped
##att
##night
times
land
walk
blue
whole
exact
##ations
pretty
caught
kid
##tend
pres
##ips
thank
##ides
free
##ased
##ax
instead
##ten
break
answer
laughed
waiting
##ee
grin
five
chapter
death
fur
complete
sever
##ames
##io
##man
##eth
friends
warm
lay
##ma
##als
vampire
##ures
build
others
taken
shot
ago
different
def
##vers
##osed
guard
scream
##uring
school
show
##enty
legs
##rought
##ike
looks
certain
##ited
##ired
throat
meant
foot
imag
fun
##ken
strong
shirt
tom
whispered
ale
##cus
glanced
gen
contro
burn
bare
##iding
human
straight
perfect
gun
ins
bring
window
##ored
##eks
whatever
cho
less
brought
sex
##ric
chr
##ock
##acked
sent
##ove
shut
unc
large
holding
mess
exactly
sign
adm
stepped
dream
##ates
##ming
touch
quite
##by
watch
sub
##zy
sense
watching
leaned
disapp
sitting
cross
count
happy
cry
##cy
bott
realized
##ield
thir
##unt
##pe
entire
sam
seat
##iful
lead
cent
##anger
##lt
bra
nice
##anged
##land
chair
running
finger
##ression
followed
na
six
wood
hours
kit
win
closer
several
shit
grabbed
true
continued
job
shru
##br
fear
replied
##ants
##iced
##ison
##ape
##ik
line
##els
la
##ular
mad
beautiful
##otion
##aster
attention
thr
clot
##orn
wra
deal
pushed
##pl
##apped
youre
##ces
damn
##aces
chance
longer
ten
yell
trust
beside
baby
hung
##ze
appro
saying
##chen
##ches
speak
tonight
consid
shoulders
cir
##read
interest
##ract
bag
month
control
heav
##its
din
grand
town
today
eng
lear
stom
squ
stru
##iff
tem
sky
##ject
apart
safe
##haps
sweet
pap
moving
living
pri
case
perhaps
money
proble
sing
##gan
ir
slight
##aged
given
##cess
##de
sens
##ina
change
pie
fast
dev
smell
shad
av
sort
tears
##ines
known
circ
road
pal
##isted
kitchen
##jo
thats
parent
son
wasnt
rose
add
live
dropped
mil
couple
leaving
loved
tu
##antly
reco
bene
office
above
hon
truth
eff
##bed
jump
decided
green
sister
form
nat
rock
women
gri
##sel
##ror
ign
tor
##ones
business
pet
protect
esc
city
cre
##son
doub
street
alex
mir
##ots
filled
##ility
da
##arr
ris
##imes
##iew
creat
##ime
obv
anyway
##ashed
##ident
##ief
##iny
##cent
spoke
passed
working
stomach
##ply
direct
completely
##body
lifted
##oun
##unch
shar
drink
parents
silence
bright
##arth
mut
gas
arri
raised
dan
seeing
worry
twenty
pay
forg
coun
corner
secret
begin
trou
pict
ce
ner
rather
frown
late
sar
walking
pos
staring
empt
guys
book
hund
##rupt
expression
supposed
hundred
killed
##medi
exper
##lly
makes
food
##aining
edge
sque
immedi
happen
shift
##ley
##ging
##acing
##nding
mist
##light
abs
within
sou
hang
##ann
shout
gar
die
conn
knowing
coff
crow
##la
##ony
picked
##ster
du
##ushing
nearly
building
norm
teeth
ext
jul
wide
yourself
sighed
week
gro
pleas
mark
##ude
grow
##raid
cam
sear
##ience
##aled
girls
joh
tong
thanks
##ilt
story
draw
box
stuff
upon
afraid
eat
convers
thoughts
cla
clean
##ator
towards
cant
giving
danger
couldnt
##hel
##cial
gold
easy
##yed
clothes
turning
enjo
##let
possible
noticed
adv
expect
seem
##ards
dep
returned
##itch
jer
##any
susp
stud
waited
sight
thick
kissed
except
loud
##unk
##ists
import
drive
gray
##ute
##zz
luck
opp
grou
occ
worked
rolled
##ler
minute
beneath
dest
sal
sad
pointed
##ments
pressed
become
trans
##erg
##more
stro
##ili
john
##tem
shrugged
##umber
barely
##iddle
spot
telling
class
clim
strange
bir
##lic
##ains
##ien
hey
leg
sometimes
##bs
christ
ann
concer
desk
children
##pid
mer
wondered
sett
wife
empty
tongue
remind
pick
surprised
order
answered
figure
cheek
##rief
##olog
##ign
##ient
immediately
ball
pock
slid
coffee
problem
smo
knows
##use
led
comfort
##ities
##sed
##umbled
##uff
during
spr
middle
##ha
##icking
bill
##amed
covered
ord
heavy
earth
##ories
terri
changed
disappear
appeared
##tern
stupid
stri
##though
##selves
crowd
##sing
##aded
sir
stone
doubt
##ices
bath
sol
although
fu
pack
##ls
lady
nose
##orrow
pan
months
wearing
er
conversation
calm
died
aff
##ances
however
pulling
inform
art
fle
anymore
##ene
main
##how
hers
vict
simply
liked
gener
##od
steps
number
loc
fair
lim
round
med
eight
tall
throw
finished
ring
check
##du
sounded
hed
slightly
law
knees
##mb
wish
cell
##spe
##my
became
##aughter
ble
##cially
alive
none
paper
lit
attack
headed
##bered
rele
##iting
tast
cool
softly
lord
fift
##vin
force
group
space
sand
ur
important
direction
cop
spent
musc
bedroom
##ask
desp
##cing
sounds
##ively
##yl
##ision
fly
##ital
hus
##itted
added
##ship
##ctor
##iling
##ought
brown
##bbing
den
tomorrow
ahead
dinner
beat
sold
surprise
somehow
##iled
forget
reach
weeks
mount
prof
wants
nick
##ork
boo
crazy
recogn
worse
tiny
cast
quietly
trouble
touched
rid
drew
somewhere
accept
espe
ones
lie
threat
police
hesit
jen
broken
single
tone
follow
gently
##ez
pen
deser
swall
summ
especially
##tering
glad
##ney
broke
##band
wrapped
seconds
earl
hun
##ails
wild
kids
darkness
state
##vous
rich
worried
remembered
bey
stairs
sick
demand
command
heat
##oring
##oof
##itely
weap
area
##me
doors
beyond
##aching
van
mill
silent
prep
tow
managed
weak
view
mel
pract
questions
fav
paused
mrs
situ
placed
spl
threw
means
walls
huge
##ested
ash
anger
ive
##ara
sigh
trees
batt
information
offic
seems
daughter
magic
scr
cab
stret
cas
##ior
expected
sugg
lip
stare
##gging
val
game
##ages
##ey
distance
mention
gotten
angry
comes
##reed
shaking
wound
##ising
##sy
##ns
serious
##ael
##osp
tree
news
brief
meeting
##ibly
lying
ge
##tempt
sharp
catch
spread
##ues
##ining
self
listen
##cious
pocket
##ination
##oss
piece
event
wed
##aint
party
ry
early
##vent
bull
priv
position
carry
##sand
##ipp
jaw
path
##gr
dav
matt
ship
smiling
dar
gather
##fer
##igg
slam
waist
react
chuck
arg
##orted
##ale
forced
wet
##aped
tired
gent
promise
##aling
defin
enc
##ics
hide
##esh
drag
bottom
serv
murm
respond
clearly
rain
fuck
eyeb
##ica
cond
thousand
blank
luc
tot
agreed
toss
surround
desper
strugg
bal
relax
nervous
##erm
anim
ell
##ats
save
husband
##ky
often
snapped
fut
const
##iliar
kno
grace
chin
pun
below
bother
keeping
##nded
##ection
hate
##vered
mis
surv
choice
further
##ana
##oming
whether
bell
suit
star
lock
thin
ant
takes
max
worth
playing
boys
##riend
##ipping
##old
truck
vi
mass
odd
attempt
pleasure
using
silver
earlier
streng
pu
amaz
incl
partic
##ena
bathroom
obviously
locked
slipped
grinned
##ja
##imed
demon
sword
normal
pound
lights
evening
repe
send
team
crossed
situation
ears
letting
dry
requ
##idence
##aked
ver
arrived
asking
##eng
shall
honest
lived
##oint
ice
emb
bod
eyebrow
jumped
dog
bow
eth
apparent
apartment
handed
coo
frowned
dressed
invol
camp
wolf
mid
explain
angel
center
fold
dim
carefully
wip
cheeks
lap
rad
muttered
hoping
##ishing
##tended
##ancing
assum
realize
##set
showed
music
contact
spir
##ote
james
hoped
##ety
breathing
shed
und
band
certainly
flat
##orth
laughing
##cho
glance
##fied
gentle
themselves
weight
jake
lose
picture
strength
imagine
track
soul
##usted
agree
##ager
##using
##ative
grew
cup
whisper
##ault
##cted
##inc
brain
pair
jon
##ding
super
##oc
ol
notice
favor
lives
wore
##era
fix
nor
##aned
despite
queen
snow
##owers
clou
##yle
cass
frey
doctor
fail
definitely
scared
##kes
shoot
usually
captain
visit
familiar
ah
offered
talked
##reen
hosp
tun
beginning
future
energ
field
charl
color
cand
mich
handle
besides
##aul
avo
age
firm
##ping
lower
base
##elle
disc
river
motion
disco
##orge
wel
easily
special
wid
aware
battle
forehead
shouted
entered
memory
appre
knife
##zen
jud
helped
thirty
key
fighting
allowed
level
gest
forever
stayed
##idden
##ural
remained
mal
metal
pop
don
##go
itself
counter
suff
pot
relation
pill
test
crack
ethan
simple
wouldnt
tar
neither
tru
dangerous
moon
fresh
among
jam
needs
##rian
afterno
##iel
shock
phot
scar
##asing
david
##ific
vampires
hen
focus
ow
##right
rac
horse
scent
push
pub
missed
equ
surf
cried
##inked
phys
##ird
lad
reve
gets
aside
company
effort
pin
##ressed
diffic
pale
##ises
squeez
flesh
hospital
fro
bat
note
##come
stick
willing
destro
gh
##inct
shadow
##rig
energy
falling
sweat
proper
adam
older
court
##izing
##ges
drop
afternoon
##ayed
jeans
une
personal
##usion
present
blond
burst
park
seven
married
explained
##ries
emotion
asks
desire
##lin
following
master
freyja
kat
gon
##idge
hated
##ession
fa
wanting
port
##ope
hat
mike
moments
##rit
treat
learned
##pper
pour
fit
gab
putting
spo
##acy
store
couch
##ration
lab
##oned
apparently
fil
dom
imm
##urity
##olute
shower
##vern
relief
discus
particular
drove
nar
speed
inde
wondering
turns
shake
goes
##stairs
opening
mot
dear
settled
hol
heal
thigh
noise
prov
stuck
hanging
busy
likely
third
##ashing
cu
books
##ives
understood
grim
hunt
carried
screen
calling
escape
##ston
starting
##ug
windows
##ived
pant
hill
jason
bent
ride
fool
##amb
screamed
date
ta
disappeared
hips
rh
maj
viol
figured
bottle
##cher
##iers
theres
michael
poor
##cl
determ
powerful
ended
shifted
rob
ari
##ulous
tele
hunter
mary
grip
imposs
study
obs
##astic
##asm
##nds
hea
unless
##ils
absolute
##line
fort
summer
mirror
wear
missing
happening
wake
bodies
##ob
dust
murmured
rece
echo
lets
careful
learn
security
jos
hallway
hy
offer
##onse
##ert
speaking
pants
belong
taste
eventually
comput
peace
pink
zane
hist
##ution
##val
guards
dance
country
flash
truly
difficult
rachel
forest
bast
twisted
##ett
clen
dru
##itten
##ading
harder
##men
##oved
entr
sea
share
humans
sleeping
est
thumb
club
##ses
##aff
relationship
mort
##stem
pul
weird
yours
tens
##ians
peter
storm
iv
shiver
prop
dig
gift
smoke
horri
jess
uncle
satis
yelled
nod
lucky
##inting
doesnt
blind
##bert
jes
unf
laid
system
interrupt
leather
aunt
card
ly
swallowed
pushing
response
grab
##leep
growing
usual
palm
station
##ring
admit
spend
places
ways
asleep
##attered
sav
compl
enem
message
##par
##like
##atic
enter
shes
considered
##miss
##rent
purp
doll
##illed
##umped
trip
reading
##otten
hadnt
beth
smooth
sof
##unity
finding
##athan
##ledge
effect
##anda
rough
wine
##ords
seriously
mov
##ball
rom
funny
post
burning
leaning
thom
blinked
lang
miles
obvious
##acher
waved
frank
##arm
burned
craw
confused
feelings
hotel
amer
hole
##res
distract
presence
bas
##ified
##rid
island
wit
leng
birth
drift
vill
soph
sarah
private
anywhere
##ius
##bby
final
##arrass
north
##ron
reminded
embarrass
##cri
consider
ut
emp
appreci
victor
cause
defe
##iot
lunch
shop
enjoy
emma
forth
listening
murder
refle
shadows
hidden
piss
corre
bear
var
paul
##omb
impossible
rub
##icious
##iam
block
elect
##rated
vision
cabin
rap
uh
suppose
mart
faint
aid
frust
prison
song
directly
fallen
believed
##roud
whats
feels
##cil
##ency
##cks
pier
mach
bite
shoes
includ
mere
arr
allow
gard
shoved
necess
##urch
##ander
narrow
surface
##ounced
##udd
colle
##inal
seth
oppos
demanded
##lyn
west
disg
text
evil
doorway
##port
entrance
mic
succ
##ury
jacket
conv
trick
wont
length
male
aut
respect
grass
experience
##ormed
vol
sides
climbed
##ole
repeated
report
aud
extra
por
##itive
spell
finish
fought
##gar
rubbed
faces
wave
capt
warri
numb
elb
crying
circle
amazing
driving
##yer
memories
join
played
approached
##aur
loose
wished
mac
breathe
##oose
##lessly
ghost
reaching
totally
nobody
##ners
faster
wheel
clut
cole
jim
buck
##inging
coat
ment
warning
##ades
lowered
slammed
nic
##riage
invest
hearing
roof
##asion
board
##ai
tossed
laught
involved
brand
trail
##omfort
pit
feed
hardly
ian
beer
stiff
muscles
laughter
##fast
ceiling
apolog
computer
clock
##bing
lung
naked
chang
thrust
fist
cleared
inno
##cul
tech
##hood
unable
##mer
sne
##ids
##het
iss
perfectly
flick
chase
wrist
south
tip
heads
##uct
church
checked
cru
size
##issa
mostly
possibly
bound
##yal
interested
rush
yellow
ju
continue
nur
tremb
smart
killing
exha
rul
exist
process
rev
general
##teen
subject
lat
bitch
accom
gasped
ordered
buy
hiding
image
kicked
support
dir
##eless
weapon
born
foc
##board
twice
respons
forgotten
instantly
spark
##ald
nine
gate
decision
heading
cock
brothers
opt
blow
fully
beast
army
pretend
gigg
incred
swung
##izz
##wise
purpose
hi
iron
henry
eric
tab
attract
panic
regret
narr
squeezed
button
##ibility
##rage
brushed
gras
risk
focused
feat
promised
logan
anno
driver
comfortable
gut
terrible
##well
blo
##anted
breakfast
ignored
div
mood
##den
simon
thomas
##male
public
##nel
claire
amb
stream
paid
fright
##ented
female
##essed
soldiers
fat
history
luci
flew
proud
joe
##ium
##eke
##lish
suggest
welcome
concerned
jour
blade
flying
luke
##inn
neigh
upset
##aming
##roll
non
struck
rising
scene
##ague
lines
##wh
hello
pool
gods
fault
beach
worst
univer
blur
neighb
excited
surely
til
produ
separ
rushed
daniel
absolutely
pieces
inj
woods
bloody
##iday
fer
stretched
boat
comb
tightly
disappoint
grey
opposite
current
wooden
scra
wedding
parking
honey
boots
##bers
jerked
cost
##rest
search
plate
excuse
quar
built
##anna
pad
elev
kick
claw
rum
indeed
breaking
##omed
saf
leaves
breast
##eps
joined
harm
##inted
type
instinct
steady
##ral
screaming
eyed
joy
kissing
train
dreams
psy
eating
lake
rang
mas
##otions
backward
##hen
magn
##annah
huh
descri
##ama
ident
tick
plans
dut
ya
##uit
##alk
faced
##sion
movement
##work
bones
fucking
sha
swear
curled
interesting
deliver
##agged
concent
studied
kate
##ilar
spirit
touching
golden
dirt
hungry
broad
unb
emotions
knock
scan
##house
happens
##ground
##illy
engine
brow
yester
##ov
slept
creature
exam
regard
easier
tent
##une
fren
greet
ken
yesterday
reaction
##allen
accident
ber
released
rand
##rodu
shape
prepared
decl
flight
caused
ban
knowledge
losing
##ias
shudd
##isto
listened
whose
deeper
oper
##ensive
narrowed
godd
concern
mistake
flashed
guest
##ancy
hig
##aret
##ism
trave
anx
##00
growled
##ective
sour
mix
josh
isnt
##col
square
sink
screw
prince
decide
knee
travel
jamie
auth
##aly
prefer
bree
thinks
##iley
staying
ryan
thor
##unately
butt
dying
shield
##ceed
kell
opport
woke
arch
fifteen
hesitated
stun
##under
searching
favorite
pray
smiles
shel
clenched
object
steel
animal
##uing
tan
tightened
dirty
wings
landed
govern
crew
boss
weapons
##ume
occasion
vir
inch
removed
shocked
##icle
eyebrows
scrat
college
uncomfort
william
eliz
wonderful
spun
tea
entirely
##velop
double
refused
cy
hurry
grown
chuckled
carrying
hug
avoid
drunk
bastard
awk
planned
##mas
nearby
##friend
##umbling
##itude
bringing
awkward
showing
hors
admitted
everywhere
breathed
obser
recognized
orig
instant
uns
##arily
knocked
shared
san
solid
desperate
reply
saved
suggested
##ially
dun
indic
row
theyre
charlie
##imp
gives
gathered
##gie
dare
cook
mountain
julian
##nday
major
cow
warmth
smir
yan
bought
##igned
answers
comment
belly
otherwise
closing
##asy
##por
##antic
##nie
mc
anci
19
sucked
pregn
convin
##ously
sexy
sending
giant
stories
depart
deeply
restaur
record
bridge
hurried
heaven
emily
boyfriend
staff
pure
buried
libr
groaned
claim
liz
calls
techn
instru
stage
tear
cars
##key
pleased
meaning
rolling
silently
beauty
tour
rare
um
##ique
helping
pictures
awake
unfort
investig
marry
stir
jeff
stab
dragged
##eled
glow
##ese
dragon
reality
challen
author
belt
bru
##rel
cust
common
sac
##ura
exch
prin
success
##reme
drawn
deck
letter
spin
fifty
adj
faded
stat
host
##agg
imagined
surrounded
##str
eld
relie
deb
noah
necessary
gle
names
training
eager
fal
jac
insp
##ded
works
intense
##eping
holl
tur
##itor
##case
action
pulls
##ogra
ling
amount
##ational
lily
prec
pause
local
##ican
folded
##ences
##nes
##ument
service
remain
rage
determined
leading
cig
langu
charge
bank
lack
displ
mate
glasses
wiped
excite
youve
grate
nature
##dom
sus
##rick
##ios
ren
introdu
##bit
ancient
leap
drawing
gabri
officer
drinking
pointing
horses
##ashes
sliding
occur
tort
##asons
##uss
passing
gall
cale
mentioned
expecting
waves
betr
stars
natural
considering
younger
richard
mod
movie
chat
discovered
plenty
slip
voices
chick
opportunity
aband
##uc
curious
rooms
witch
rise
##lled
glared
details
dozen
recall
heels
##thy
##wood
streets
jared
fab
excitement
oliv
hom
physical
garden
horror
domin
rout
problems
intim
bul
crap
wand
assist
##itary
cave
##iment
mater
ray
clo
##mp
loss
pressure
written
jew
dart
lightly
blame
members
throwing
enemy
##aches
resist
badly
lif
relaxed
##the
##ham
##gu
seb
keys
hous
##iculous
##ooked
bry
##agger
safety
grunt
setting
kyl
incre
match
experien
stronger
##ette
york
christmas
ignore
spar
glo
blast
prev
ank
dawn
##gress
cassie
correct
tied
fol
tail
##alous
account
##ker
orders
##arsh
blanket
holy
##end
fac
interrupted
weeke
witness
target
##ilities
rested
kisses
pissed
lucas
veh
##ye
##tle
##ille
ability
##lfriend
inh
##oted
girlfriend
wis
tv
twel
christian
jan
features
thighs
failed
temper
sebast
elevator
guilt
##ts
greg
olivia
psych
corrid
swept
anna
pred
confir
obl
becoming
council
kylie
##ella
honor
edd
unlike
terror
plane
##itched
jesus
commun
##can
##abeth
nowhere
million
fish
hint
english
flames
tucked
organ
##ills
bitter
intern
george
pressing
slee
sell
skirt
named
manage
evidence
##father
##iant
silk
forty
release
smelled
overw
cha
poured
sebastian
doc
firmly
abrupt
scow
sed
mission
##ante
porch
including
sen
##ev
##acks
bon
restaurant
youll
unw
responded
tang
irrit
twist
##uries
bigger
prove
reb
result
##icate
fart
east
fant
##isters
flowers
##ires
starts
##aging
cash
##eling
nate
compan
cared
pace
blake
##min
##very
higher
##olves
village
##neath
winter
planning
##rog
struggled
project
phil
##action
massive
cous
upstairs
##oe
spoken
##mother
twelve
exh
backed
ivy
french
isab
lovely
disp
similar
facing
vib
##uses
grad
##hew
gripped
log
robert
buzz
##lla
jane
##nn
ster
ripped
widened
page
planet
difference
material
marriage
tony
whenever
rick
##illing
passion
fed
parked
uncomfortable
bay
##rop
cream
##icip
##ider
papers
extreme
whom
##mit
demons
oce
kar
carp
castle
jealous
flood
machine
##sey
##ature
powers
snar
##iction
reasons
swim
nightm
liam
briefly
ridiculous
purse
vac
tension
enjoyed
weather
elizabeth
##amber
##aine
insisted
underneath
relieved
choose
slide
pil
liqu
plain
monster
practically
survive
race
nights
##con
##inary
lex
startled
satisf
gorge
heavily
parts
cel
trent
confusion
##ization
handsome
princess
dancing
sniff
knight
##ival
library
chris
plastic
stopping
##icing
anticip
camera
urge
cryst
cart
profess
blew
warned
ted
fier
##isa
emer
eve
jace
fang
##lies
##zed
guns
pip
hamm
write
wow
##iving
##ctions
tit
stair
sts
conscious
connection
tunnel
innocent
attend
rules
##pes
nightmare
##vering
ger
ate
merely
##dding
radio
cloud
leader
upper
##iest
forgot
grave
brush
inches
picking
faith
##oll
emplo
neg
beck
ven
bleed
accord
ms
agent
rear
##eter
swir
sank
##iber
julia
clay
sean
##antage
idiot
connor
camer
ward
##idding
embr
victim
teen
##iently
##ality
split
thrown
pounding
horrible
tells
rust
##top
honestly
creatures
normally
brad
tatt
froze
assumed
##ira
intell
##istic
address
teacher
reass
rif
frame
develop
glancing
weekend
yard
ron
writing
ug
stumbled
##ify
tess
created
reluct
overwhel
##yn
##ca
##time
swift
##af
dread
farm
rail
lots
nods
##umps
##view
military
unfortunately
flipped
orange
fash
closet
unif
##ndon
suck
nathan
resting
tempt
understanding
animals
lungs
access
appreciate
grateful
hood
ease
fists
convinced
stands
fixed
destroy
freed
##laimed
utter
spine
pregnant
##hol
spring
awful
sin
soot
cheer
cigaret
tender
somebody
grabbing
##ki
hugged
##now
fury
fan
damp
ni
##acle
##gram
ram
loudly
eddie
ting
resc
glare
beating
pile
trembling
refer
##gest
strang
torn
furn
carol
distant
events
rever
thunder
daddy
jose
map
##aunt
ocean
dropping
##aper
bone
jay
##for
custom
##enger
##itions
##book
surprising
worn
resear
fierce
damned
meal
##ppy
sco
taught
grandmother
bird
activ
fired
delight
wer
cele
painting
nik
meat
rapid
recognize
tilted
fashion
fate
temple
tattoo
##iance
##istan
american
##ential
clouds
killer
##ddy
height
##ita
##ech
wes
##vision
crim
accepted
practice
ack
##lor
acting
language
clothing
hip
guil
distur
buildings
damage
riley
dere
abby
cro
curtain
##ora
gorgeous
cott
dug
harsh
rubbing
##erson
wash
##ront
##vis
warrior
tugged
chain
elbow
##asure
rocks
crou
shakes
celebr
##ka
##aks
whir
frozen
chew
due
marsh
cad
corridor
stranger
##form
##mo
skull
cracked
brick
priest
breeze
explod
spotted
joke
plus
sensation
##ris
chose
government
ali
polit
grandfather
##ivid
towel
explos
ignoring
flut
depe
forgive
assured
chairs
suspected
tie
protest
gw
frustration
##inated
duty
gy
cred
waste
downstairs
searched
chlo
myst
pillow
escaped
unlo
##ograph
intended
mia
gal
scott
peered
vers
birthday
andrew
##mon
dick
various
puzz
judge
causing
smaller
plat
shell
suspic
received
gabriel
guilty
whoever
##ec
mail
settle
desperately
groan
regular
secrets
stunned
ja
conc
##osen
climb
balance
derek
tore
charac
##otic
chief
popped
##ino
##asha
##gy
enjoying
egg
hissed
nav
civ
farther
brows
lifting
soldier
begun
brian
kim
chamber
##phone
et
pride
vel
hero
##cture
trapped
chosen
nin
bags
stepping
##ram
attacked
abruptly
footst
palms
partner
alright
professor
amy
suspect
pulse
sisters
collaps
wil
kend
returning
london
loving
disgust
kal
nurse
##amped
desce
alarm
aim
ens
gesture
dor
notes
explan
virg
drifted
students
bunch
terrified
sip
cher
##umed
capable
walks
##rate
mum
formed
snat
hal
bri
surre
##ases
sara
exhausted
##fic
cute
landing
##ators
ladies
brill
display
yanked
rib
painful
muscle
sake
caress
chloe
won
##athy
unex
curse
perform
program
sensed
##kin
##heart
les
rule
rode
particularly
covering
rot
lined
intent
circum
houses
mountains
condition
werew
ros
##itation
##bel
liter
##fit
shame
bran
##do
discuss
term
##ushes
changing
moan
acknow
rhy
marcus
##ites
##ffic
glowing
bond
prim
larger
##ology
concl
underw
shooting
##what
gazed
detail
checking
uniform
signs
echoed
purple
grant
blaz
shr
vio
blonde
snorted
rip
impat
gage
##hip
bullet
arrow
washed
licked
dogs
points
##ulf
init
gear
arched
speci
announced
lied
footsteps
cutting
garage
hast
##apping
##ption
chocol
approach
straightened
advantage
vanished
ai
total
raced
mask
##ales
##ache
confident
fingert
collar
embarrassed
deserve
ugly
gav
sooner
halfway
20
mental
raw
tower
vin
encou
##ception
raise
##ule
##ught
sofa
butter
tables
##asc
retreat
bowl
according
##walk
##ishment
contract
##umping
violet
der
devil
neighbor
numbers
holds
matters
tense
morgan
##vor
satur
victoria
frag
sheet
##aker
occup
caleb
filling
##zing
mumbled
electric
catching
lies
moves
throughout
intellig
steve
alley
convince
wink
connected
likes
task
lauren
exit
journey
carl
clearing
##wards
stal
everybody
inner
lucy
##iety
##ico
riding
price
insane
bench
alco
whispers
steal
destroyed
silly
jax
remaining
##otte
opin
maggie
##uts
##place
sway
fel
org
vide
##mission
drown
paying
nap
deg
jere
bob
soci
tapped
rope
appearance
havent
tex
ratt
gestured
dumb
billy
poison
haw
protection
served
detective
perio
trace
grinning
##ago
frightened
forcing
file
profession
item
slapped
harry
clar
keeps
games
social
surrounding
##met
##elled
##vet
##hern
##aky
bang
ep
speech
cousin
tray
balls
tough
images
lust
##lu
chill
##han
##eg
fabric
decor
pattern
challenge
guessed
sunlight
shade
##erie
president
manner
wrote
enorm
##raw
##inger
recently
##bbled
##ona
##rif
etern
unexp
hunting
lur
pee
painted
##awk
urg
loves
cooper
##bble
##ints
senses
strike
symp
seeming
punch
trained
satisfied
style
##iring
hitting
argue
eased
vul
tristan
##hetic
smith
##oop
dang
holly
vehicle
exclaimed
packed
traffic
charles
unexpected
lone
neat
hay
struggling
afford
sounding
drank
sharply
##pher
tam
##ads
experienced
ourselves
net
member
source
request
dining
dismiss
dean
haul
##kn
sched
##eze
crystal
caut
driveway
##onscious
colored
circumst
chocolate
stroked
##ordan
##ran
vague
drug
autom
occurred
copy
liquid
##atically
flin
haunt
friendly
fellow
cops
mult
closely
gasp
##asket
##agon
weve
jonathan
##unched
impress
letters
inqu
sid
patted
gran
##urs
cursed
remembering
##oy
arrange
hmm
explanation
wrap
palace
cliff
replaced
scramb
louder
##cell
toes
washing
##imm
##emon
blink
bothered
unh
acqu
##ait
encoun
conce
alec
somewhat
##don
theyd
slowed
location
##stand
wren
statement
research
possess
##ounce
ske
purs
##nal
cloth
connect
##ylan
lightning
dull
royal
invis
snap
bread
tap
assume
shore
casual
design
##atherine
##rous
possibility
##riff
##rib
dollars
danny
crime
flu
##ruction
##cies
series
behav
existence
ere
intens
fasc
##ients
charlotte
section
nodding
collect
garion
whist
raven
racing
##rier
hundreds
moaned
responsible
reser
former
paint
enth
pleasant
link
##aves
clue
falls
plant
constant
teach
werent
bored
disbel
evan
##inkled
unus
contr
avail
##certain
previous
pisto
ess
drum
distracted
bord
noted
##lan
fangs
kidding
genu
eyel
##eral
emerg
issue
nails
abandoned
trusted
grasp
goddam
confidence
##amps
squeeze
attached
ax
stall
fence
##gger
saturday
drinks
##ado
bleeding
cigarette
lee
teasing
ast
##otted
laughs
curios
##lle
colon
studying
agreement
complic
##ended
stops
rig
humor
sexual
ellie
pockets
veins
fake
sport
clas
trailed
arrest
goodby
holiday
property
##bled
wing
cere
alice
code
yards
amused
television
sophie
cage
extremely
colin
tank
threatened
##rating
runs
##arest
10
amanda
zomb
drake
##eline
restr
strode
carpet
##rey
mall
panties
fred
##asty
sheets
##olf
prevent
##jected
##ata
genuine
jacob
disappointed
haired
serge
sees
shrug
sunday
##ulation
extended
env
wicked
martin
dw
mans
lace
ri
zach
exposed
slipping
amber
murd
univers
kay
claws
diss
offering
seated
##coming
sarc
hannah
todd
dylan
compet
bowed
kevin
medic
gown
covers
maintain
original
deserved
contain
flame
raising
sevent
diam
susan
withd
gavin
sheriff
grief
core
vall
barn
enormous
amuse
period
sacrif
medical
##rete
rifle
wise
tub
parted
centuries
finn
ships
universe
##isy
immort
fingertips
eli
##andra
freedom
exec
hopefully
justin
##we
feared
##atively
happiness
thousands
wan
swing
curiosity
vulner
hook
anybody
##ta
##aping
surve
##ato
sole
belonged
nerves
mile
midnight
##field
ends
tax
background
##ugg
beard
jordan
##lock
##olas
swallow
shuddered
shy
##atory
scru
tend
##aren
##vation
##und
spending
nipp
shuff
squir
wolves
adult
birds
brilliant
robe
purch
shorts
loyal
##umble
invisible
##ples
##aud
##pack
##cle
monst
paris
realizing
visible
##org
##uted
friday
allowing
##hawk
##bl
interview
shining
kyle
rab
civil
nervously
express
##inda
delicate
answering
market
ais
passenger
bud
russ
##beat
##back
jerk
stated
span
claimed
##iter
daemon
collapsed
deliber
kelly
##nat
shivered
nud
##uce
arent
spinning
advice
thread
accent
warriors
remark
gwen
retrie
approaching
stones
hurting
assass
serve
desert
shown
stubb
emerged
bolt
required
invited
dating
actions
##bly
horiz
pow
rhyth
defense
video
cris
choked
guests
##iven
lev
darling
rushing
expensive
quit
wrists
chann
##rett
bart
overhead
screams
entertain
exploded
##rant
complex
champ
##dle
##anches
photo
##fl
crawled
jenny
##uel
ache
uncertain
tracks
trap
intention
muff
eleven
proceed
##mi
states
precious
##vert
ult
creep
tuck
vent
flicked
mortal
digging
opinion
alcohol
marks
##ode
actual
freak
jun
ras
drugs
scanned
courage
society
myster
##sequ
spare
commander
spect
roland
shif
shopping
bomb
circumstances
##chan
revealed
knelt
hunger
coast
eaten
spear
jet
lately
##orter
passage
bars
progress
knuck
depth
daz
lan
bye
jol
##eness
matthew
dante
lover
johnny
concrete
##ero
laz
bubb
mixed
##hh
jackson
##icles
beam
##pan
##chie
mud
gathering
brave
##ooped
drops
wounds
sandw
official
communic
department
betray
ham
scare
virgin
colt
jeremy
jenn
sits
stern
scient
flushed
breaths
cord
saving
rhythm
fairly
tasted
cards
shouting
motioned
crash
elder
symb
informed
annoyed
dagger
delicious
excell
dragging
deny
character
fog
trunk
ava
helen
feather
dude
##zzy
moder
knocking
rat
punched
amusement
embrace
##iture
motor
devon
unkn
##eds
boot
teased
stubborn
dave
tyler
magaz
gul
anton
ripp
patient
option
az
secure
waving
remains
cit
##ample
puff
scen
brushing
branches
bike
credit
clary
create
##illa
trad
glit
pra
whit
foolish
glances
terms
corners
aye
nest
famil
diamond
disbelief
shattered
airport
colors
prompt
dal
ideas
flow
##ige
goodbye
##ores
singing
yep
ribs
mack
leans
ruth
reveal
##uous
random
revealing
lux
kane
##bur
lor
pages
reaches
##oms
sparhawk
##esome
addition
winked
dee
shaped
basket
available
behavior
wishing
rapidly
roar
tighter
boxes
vic
marked
##usi
hid
switch
##imate
stead
furniture
grandp
ps
melissa
impro
##reek
symbol
accompl
que
julie
vast
click
chicken
bust
till
pity
seats
begins
##olen
amel
dealing
incredible
pistol
confront
trevor
wrapping
precise
biggest
milk
survived
content
lin
##py
scattered
##ex
remote
unconscious
armed
opens
edges
##asper
circles
##die
whipped
shane
##ooks
##iger
furious
##ament
trem
changes
appl
##ability
trade
stock
shifting
cocked
clutched
quarter
quinn
handful
provided
remove
##urally
proof
dod
growl
photograph
sleeve
crept
jean
newsp
march
wre
calmly
kicking
skills
argument
appe
impressed
##oud
anxious
mason
placing
rent
appoint
jail
insist
career
##itar
range
tipped
alert
miser
satisfaction
equip
sentence
spat
literally
roger
version
##gen
minds
##oph
youd
impression
grunted
nope
treated
stretch
apologize
sidewalk
joseph
student
emergency
##nda
football
habit
##aph
sweetheart
threatening
valley
makeup
adjust
driven
##ila
winced
##oon
gang
ny
exchange
##lights
emotional
nasty
barb
miranda
arrive
wy
fourth
danced
##lling
learning
puts
unusual
eighteen
freaking
climbing
families
##gue
enthusi
pear
##uments
weal
goddess
##tery
fi
resol
marie
enemies
repres
##shit
coach
individ
roared
equipment
##lass
##fall
##encer
oil
upward
sneak
patrick
throne
##urance
wiz
rescue
cupped
duncan
asp
sire
defend
role
cough
lun
jessica
crown
cult
lawyer
floating
stolen
struggle
advent
based
rome
crossing
##ano
##ops
##tt
intend
stagg
sugar
hollow
ducked
##com
hank
inn
fet
greeted
kin
##ford
ruin
upright
##hens
mothers
edward
illum
ky
closest
directions
wounded
katie
helpless
jill
lobby
officers
drawer
movements
heather
##impse
glimpse
anticipation
dried
##mate
mattress
jumping
anne
crad
separate
contem
mont
owner
brut
shortly
cloak
cheese
gym
giggled
relig
frost
alexander
##ville
sab
unknown
crashed
heartbeat
charged
excellent
lucien
nearest
shots
realm
ox
century
frustrated
strip
##oul
halt
biting
rod
aston
brit
shove
prick
perman
alien
fruit
quiver
curve
snake
##umn
darted
backpack
##wor
sadness
cruel
twin
ruined
gem
duke
isa
jesse
begged
##tail
obe
##ffed
sixteen
adrian
awesome
oak
discover
rarely
##gun
stuffed
##rowed
disappointment
scout
sail
casually
deadly
swore
gradu
jewel
sele
percent
##mar
chic
impact
professional
happily
bac
##xed
ought
ending
yelling
torture
snarled
mama
ze
suspicious
shows
mattered
mi
##ctors
territ
trash
##ifer
garrett
##fire
##oning
scri
##erence
erupt
##li
wandered
twisting
##hem
eur
clicked
pretending
mild
##ika
owe
glor
stef
crowded
limbs
elena
radi
##inating
owned
agony
alt
fathers
##isions
pig
flashing
aching
vulnerable
##ulated
provide
gain
mechan
##ulate
permission
##venge
booth
potential
armor
boun
pizz
injured
tempor
##oci
swiftly
stress
molly
folks
##aries
guide
ez
##avier
##gment
blowing
##ilet
absor
aver
leapt
kendra
##stone
university
sharing
site
marg
sergeant
basement
spencer
cleaning
meg
recent
straw
##bi
moist
patch
stole
stares
##aron
existed
dism
elbows
##itty
forces
aust
sophia
sideways
pounded
stroke
sucking
aidan
ashe
kingdom
##reg
crouched
bullshit
thorough
viv
tay
mystery
##iona
string
sout
influ
imper
affection
revol
tessa
gates
individual
gide
audience
tape
movies
##yard
babe
sensitive
owen
orgasm
##arse
##riate
##osing
scrambled
##ension
##rily
nu
swinging
acted
##lings
aria
violent
attempted
modern
##iana
##aline
marble
scary
shrie
##ggy
healing
holden
stack
##uded
possessed
mob
lawn
##ingly
arranged
doubted
##hand
health
lamp
reception
greater
kinds
##oops
surge
patience
alph
##hole
chances
tensed
rate
suc
whispering
entry
positive
bor
flowing
salt
hesitation
endless
estab
associ
reluctantly
frowning
fancy
chaos
cake
monday
horizon
mercy
dow
volunt
eleg
lonely
confirmed
##da
begging
unsure
dece
maid
useless
gideon
signal
##etic
complicated
##va
therefore
##uary
sty
hunters
darkened
##rom
clan
incredibly
fled
candle
grandma
succeed
souls
ned
hills
sant
##aid
youth
sheer
las
craft
frequ
photos
##esty
##erald
atl
mered
clutching
flower
assistant
##alie
sore
lane
buddy
spilled
raz
romantic
slo
meredith
trembled
##rin
##armed
contents
rings
classes
gabe
melted
apr
ragged
lic
resem
seek
supplies
reflection
waking
mand
community
steam
appears
incident
consequ
##cra
traveled
constantly
##omp
##spect
famous
route
meth
laura
tro
tara
##raged
neighborhood
carved
kh
##bor
curved
smoot
crit
shiny
ton
envel
rude
fairy
bald
envelope
sinc
bol
useful
aloud
explosion
lod
18
spray
loaded
attitude
stark
syd
needing
backs
prepare
contempl
expert
snatched
##icy
magical
intensity
season
bride
##isc
angle
moonlight
##ya
dipped
decent
lisa
cleaned
thus
ached
blocks
yawn
america
soaked
polite
violence
hired
knuckles
false
##itable
werewolf
exhaust
protected
highway
pinned
typ
physically
suffer
breasts
loos
mane
attractive
##mist
weakness
items
swell
##immed
captured
imagination
smirk
ordinary
pouring
shimm
##nis
heated
screwed
plung
issues
##anor
wherever
hyp
stiffened
andre
curls
slumped
neckl
boring
charm
friendship
admir
vig
prior
dripping
bits
central
##hold
forb
ped
sons
reck
spite
scowled
declared
inse
##ele
##vy
figures
healthy
##rison
py
shaft
innoc
grimaced
stirred
flung
stroking
##attering
swords
theory
##ollen
contained
rag
doug
jimmy
wipe
bun
eggs
zoe
fond
##boy
jessie
wire
pizza
hurts
stool
swollen
laptop
arrog
spit
trigger
twins
nipple
tips
earn
stained
clung
device
warn
overl
suffering
lil
branch
safely
traveling
scarlet
nich
estate
sticking
##hest
gripping
proved
ral
od
separated
dram
lesson
properly
##ji
tries
signific
brandon
dish
sheep
fears
lifet
mik
ker
science
spreading
##ada
scree
responsibility
highly
compared
murdered
icy
shap
servants
chuckle
11
rocked
delivered
stefan
signed
rav
waters
childhood
sweater
balc
holes
suite
sel
utterly
occasionally
dwar
jennifer
##ums
12
maria
isaac
troll
altern
jar
##idy
karen
pir
annie
personally
escort
pilot
german
syl
brings
drained
planted
arrival
tearing
aaron
justice
naturally
rit
blocked
##var
spirits
backwards
##inding
crushed
daisy
mug
element
##mes
clever
ringing
courty
rounded
preferred
##rees
fields
ankle
waitress
foreign
balcony
ryder
lump
kr
jenks
##cast
lick
educ
crawl
exchanged
client
funeral
bark
refuse
surprisingly
toe
##kins
continues
sally
unit
smirked
cries
subst
overwhelming
corp
mae
##umph
bi
traced
##ua
unp
gn
##erc
novel
haz
swip
chicago
adren
oliver
protecting
nort
wildly
##bbie
##antha
shone
journal
apple
distinct
##hin
wiping
ak
tat
##rik
dall
ree
slave
della
cheap
dragons
fork
flag
exhaled
skill
pony
melo
repeat
taylor
director
gloves
eh
quarters
kidna
panting
pete
sought
carter
inspect
assign
corn
rey
tate
shelter
sets
charming
strangely
approp
##ely
discussion
kir
selfish
platform
rack
sang
introduced
carriage
##bal
shouldnt
revenge
##zie
stretching
nail
hanna
nerve
preparing
##omi
nan
staircase
acknowled
##iable
protective
##bre
divor
magnus
kings
princ
limp
tomm
avoiding
companion
sofia
thirteen
vincent
##ddled
angels
leads
jude
aiden
citiz
anxiety
switched
plu
bend
cotton
##natural
gentleman
manip
scars
flowed
louis
mysterious
transfer
courtyard
ba
anth
knot
slamming
questioned
tradition
surrender
entering
tooth
dorm
##iqu
damon
pounds
puzzled
##veled
stan
circled
spider
mentally
doctors
dreamed
observed
concentrate
lege
##iece
andy
taller
spraw
heel
hooked
function
leon
brace
strained
stake
gregor
soothing
candy
privacy
calif
grabs
laws
nostr
necklace
crashing
schedule
dise
bullets
##icop
plates
brid
bottles
flickered
velvet
coinc
shay
homes
cooking
##idently
##fying
suffered
ador
##mn
hopes
slap
goss
##iar
bold
fourteen
##off
dock
ing
immediate
squeezing
##alled
mex
goddamn
routine
located
mistress
tale
hatred
prey
californ
affect
chains
miracle
accompan
tangled
babies
degree
messages
ginger
haven
bounced
tossing
sadly
monsters
slick
directed
aimed
interior
flip
instructions
hearts
europe
miserable
wigg
buttons
slim
cautiously
latest
##ini
eternity
muffled
finds
ked
##inged
nina
micro
helicop
melan
trial
terr
commanded
included
reput
##izes
smells
toast
legal
valent
erin
volunte
15
##izzy
los
arc
damien
consciousness
flashlight
seeking
##eday
intelligence
##bow
equally
ware
someday
punishment
roman
talent
duck
aug
dex
flared
visited
obsc
bobby
structure
labor
grasped
swimming
len
tack
invitation
greatest
leo
whim
nad
##utton
handing
floated
cases
##inate
questioning
##win
toilet
oblig
squad
calcul
shoving
blown
daily
currently
unst
lore
scratched
##lers
dared
underground
crush
territory
rolls
cameron
california
defeat
##rol
underwear
hits
nak
##iple
investigation
lands
manager
roy
corpor
controlled
muse
regardless
es
thera
ralph
fleet
intently
ladder
gig
dallas
##atter
impressive
assault
##isk
fever
##omes
measure
achie
bore
lifetime
descended
ka
##osure
flee
worlds
strate
sized
##enses
intrig
##ros
##cts
united
math
cain
lexi
dip
jenna
feeding
katherine
goal
afterward
slender
remo
meas
sinking
bless
newspaper
england
blinking
glowed
##umpled
pierce
southern
unre
bik
emph
pretended
helmet
##ula
##ission
jones
glaring
sacrifice
ankles
grumbled
counted
lid
caring
##iveness
intimate
scot
sunsh
dusty
sixty
grav
sorts
bron
inev
decisions
require
franc
obliv
##ibilities
adrenaline
thankfully
subtle
colour
nostrils
shaky
compound
prisoner
exerc
indicated
reflected
toby
designed
example
transport
options
agents
results
##bles
amelia
scratch
darker
pitch
barrel
popular
atop
supply
grade
samantha
mayor
##bell
senior
draped
twitched
##antically
##inge
joking
##amm
##inder
abilities
bee
rafe
##mark
impl
aisle
ponder
deliberately
myth
servant
described
betrayed
mitch
##mony
sydney
groups
species
penet
authority
laying
records
successful
specific
neil
sniffed
##enth
hammer
##uten
related
cameras
seventeen
archer
persu
##acles
bearing
barked
exception
wrinkled
monica
##over
##phy
employ
creating
##not
cuff
squinted
awa
jung
shirts
cush
magazine
worrying
ridge
sunshine
griff
matching
replace
##berry
recalled
tin
##cel
settling
##mates
roughly
protested
efforts
jobs
chasing
fen
prayed
callum
locker
shallow
30
bryn
engage
oddly
data
curtains
confirm
##ench
##fo
flooded
nicole
conven
##ological
shelf
inhaled
ara
tiger
adjusted
commit
dammit
grounds
describe
lieuten
smoking
kil
reputation
ink
veget
transl
occupied
unlocked
rebe
steep
fade
reported
load
##iles
stephan
examined
rocky
outfit
dressing
##cca
kel
stripped
##gas
engaged
ceremony
brightly
landsc
##uish
activity
##craft
carm
##itching
mini
##abor
##resh
hem
humili
insult
detect
##icient
guitar
adop
increasing
curt
outer
oct
reports
caroline
sandwich
memor
##unate
formal
lighting
##aze
floors
immortal
suic
guar
parties
demanding
jonas
sib
zero
outs
##ships
value
##ification
##elie
clasped
tug
flush
##ga
alongside
sob
whirled
choo
ath
collection
atm
increased
adding
##asant
blades
##cting
asse
arth
savannah
shouts
sorrow
daylight
smug
flor
avoided
analy
lut
irritated
blush
triumph
##ari
vaguely
nicholas
dishes
elise
fading
##outs
doz
##agne
##tor
continuing
player
colonel
compass
origin
##uced
railing
embarrassment
mck
tag
tact
hoarse
cuts
gritted
majesty
cara
ranch
model
victory
dollar
anch
stor
dreaming
comforting
forming
seemingly
conference
wagon
paw
##retched
langdon
juice
border
torment
annoying
lingering
gossip
gasping
panicked
files
tugging
acade
syn
reward
hart
victims
suspicion
jasm
distr
##icted
ashamed
judgment
virt
web
ves
cups
operation
##cr
cavern
downt
basically
pave
propped
annoy
intimid
horn
jab
witches
national
cabinet
accur
breed
hoo
amazed
despair
realization
seam
cub
butterf
rein
leaders
instinctively
determination
##idents
haunted
steering
mim
ours
erection
giggle
needle
breathless
##lished
rocking
ko
dove
gazing
grac
bew
plants
##itated
combat
##istered
keen
prayer
##olded
buying
quality
soap
snapping
minor
melt
noticing
fireplace
nuts
peering
arguing
campus
suv
##uri
exasper
poked
frantically
indust
staggered
fortune
spots
buff
caf
leaped
alpha
##astically
rene
sung
stif
##bone
matched
##osphere
anytime
fantasy
choices
ded
angrily
suits
wizard
toler
##lasses
frantic
tanner
curl
flinched
gentlemen
oo
peaceful
exciting
noble
##mend
sometime
mister
blankets
lashes
goodness
dash
elegant
stalked
pine
eyelids
grat
marched
candles
appropriate
fridge
garb
bothering
package
swirling
painfully
belief
##keep
travis
slightest
striking
##azz
grandpa
destruction
guardian
statue
smashed
##agers
surroundings
sanct
corpse
strangers
lighter
##jah
fox
film
##aa
ghosts
blushed
attempting
gap
##ardon
vacation
marshall
sipped
paced
email
nons
horrified
congr
lion
bund
miche
gau
transp
hopped
occasional
awe
assure
luckily
momentarily
bushes
granted
taunt
lunged
##apers
instructed
blocking
british
throbbing
bliss
impul
josie
isabella
##usive
aged
##mond
scor
lieutenant
glim
sev
##atives
spike
consumed
##unks
vest
mansion
dwarf
dumped
smack
##inity
avery
neatly
breaks
rows
clit
typical
sealed
counting
natalie
realised
mes
shoe
##arian
spy
warren
fiona
hesitate
##while
transf
intru
overwhelmed
odds
##lying
depths
precisely
fae
title
bella
nause
distraction
zack
initial
##umes
dump
experiment
greed
##jam
healed
churn
wasted
softened
amongst
finan
dozens
##avi
nora
benefit
braced
joining
committed
bush
status
attracted
ec
fires
wishes
riv
approval
##ali
headache
blurted
##nic
shifter
##ida
rebecca
temperature
polished
beaten
expand
wry
##iron
internet
graham
stabbed
lind
miller
outl
preser
pup
collected
##uming
wrest
pathetic
toy
sympathy
politely
unse
stephen
helicopter
vik
jasmine
dominic
cure
##down
ramp
fishing
devast
cler
trey
gifts
equal
cade
visiting
##urd
pitched
assuming
##arded
##zzie
monk
combination
hyster
washington
pushes
ital
baseball
jungle
electricity
argued
strands
areas
overhe
secretary
tommy
coughed
rigid
overt
thirst
##wed
hovering
stealing
wallet
automatically
misty
crawling
mit
jeep
reminding
whore
##shot
crimson
recovered
##away
register
danc
izzy
fluttered
texas
basic
hauled
201
seized
monitor
smash
pacing
mouths
tel
ashley
uneasy
om
grins
represent
desperation
licking
disappearing
kira
channel
frances
instr
appointment
wreck
##olo
sincere
qual
flir
russian
maneu
##ishly
roads
earned
##ipper
brady
##lord
sweeping
unique
kur
consp
media
saddle
sweep
unhapp
##add
whip
##omy
clapped
##ainted
##iser
glist
remar
consequences
western
forms
##quis
shred
sighs
painter
mounted
limited
absence
zo
##adin
ritual
##ables
##las
sting
telephone
serving
solution
thorne
wandering
thrilled
saint
mour
megan
rights
extend
##low
congrat
survival
greeting
##box
nightmares
dani
cottage
political
ensure
psychic
##rak
august
##mber
teaching
scroll
coward
standard
identity
produced
noises
tempted
curling
compre
hugh
phr
encounter
elabor
##uk
leah
naomi
piercing
acknowledge
belgar
aven
guessing
assemb
drifting
shudder
reassuring
influence
isabelle
mouse
phill
neighbors
sale
troops
revel
violently
salv
disgu
affair
curiously
atmosphere
walker
##chief
stable
hatch
firing
burns
boston
trailer
treasure
review
companions
tube
framed
sprang
apology
robin
jase
peeked
announce
touches
##arms
fbi
illeg
seal
becomes
parker
repair
krist
lingered
technology
orn
allie
##umer
gary
fifth
rumors
muscular
wary
shotgun
sket
lav
snort
liber
ming
teddy
guided
skinny
locks
tapping
##ulations
champagne
urged
transform
bour
barrier
owed
joey
vessel
rusty
bucket
instincts
humanity
speaks
##ethe
disease
erupted
ella
terribly
sped
ribb
tucker
gravel
receive
crisp
##van
##len
##anne
fortunately
sliced
preston
liv
##itri
nudged
dresser
nah
abb
laurence
carson
##iper
completed
winning
##enced
tumbled
facts
wider
ripping
resour
francis
fragile
destination
alan
fingern
vom
downtown
songs
##lar
panel
ticket
dizzy
beings
forearm
thumbs
hugging
hovered
advanced
invite
nonsense
smear
sports
##tes
eva
mock
glory
tob
suitcase
shrugs
alb
wander
dane
writ
worthy
ga
torso
##oting
##itors
tiss
rim
hardened
curb
georg
##nels
##arch
gleaming
apoll
wheels
steven
17
leaf
##oti
chip
strap
noon
##ifying
worries
zombie
##lim
thanked
shelves
##ooled
possession
flaw
pillows
unple
notebook
torch
declan
angie
savage
conversations
sull
ages
##xture
sandy
theyll
pent
slice
jealousy
knives
backing
##aying
excl
messed
withdrew
anthony
knights
clin
spoon
navy
permanent
involve
casey
empire
fitting
treatment
arthur
criminal
pam
thoughtful
ninet
##stick
imagining
developed
believing
pry
emper
##rose
june
license
valentine
lam
admin
destiny
sher
frightening
hut
freezing
recover
devour
launched
assassin
goose
specif
concentrated
warmed
lifts
aly
vegas
deserted
minim
fulf
interf
explode
##uch
arou
snugg
##agging
##ssa
##aughters
smoothed
13
finishing
reasonable
cells
weary
deaf
aj
heck
soup
generally
thud
chewed
roses
plot
pout
##vas
legend
foul
##ddle
solemn
madness
schol
bills
##ware
terrifying
pic
pinched
purchase
##ola
##lets
##oid
potato
warehouse
mighty
county
blunt
pavement
penny
aint
dwell
whos
bould
##wing
bouncing
pleading
madame
perry
inclined
hawk
longing
topic
magnific
medicine
aer
reminder
##rors
melody
newly
##lad
zombies
refusing
ally
misery
##ii
ponytail
scanning
assess
corrected
##imately
brutal
isol
failure
fount
##ender
disag
lazy
xavier
smoothly
volume
cann
superior
##ipher
landscape
lew
alto
twir
elijah
bending
impatient
wealth
decades
swirled
clients
veron
facility
creepy
explaining
lon
effects
##uable
italian
ambul
affected
barg
##quar
bury
sleeves
liar
pipe
vicious
judging
sack
testing
##ulted
surg
portal
ruby
smacked
suggestion
pron
gradually
crooked
layer
jap
services
insides
##ounded
clamped
becky
fem
broo
average
trous
prospect
dies
maddie
socks
dil
bug
regarded
##inese
telep
witnessed
##osition
##ador
workers
replies
accompanied
clust
stunning
injuries
##epend
kellan
thoroughly
mage
clam
gained
##itute
14
sober
tortured
arrested
yo
##essa
blouse
helps
persp
##ulty
##isha
attor
sighing
trailing
##zer
cats
mmm
museum
drama
dimitri
##aware
vigor
eyeing
##cut
spilling
perched
samuel
##ouch
adventure
neut
plunged
##rim
recon
temporary
edged
griffin
aura
bump
zone
##enn
claud
customers
chinese
tools
pleaded
electron
##iments
irre
mistakes
pump
princip
linc
vehicles
praying
exited
##uge
flicker
sunglasses
seed
discussed
scowl
clinging
personality
##cha
dealt
beds
##enelle
afric
disaster
##xic
storage
##erted
rattled
mcc
##uttered
introduce
tires
shivering
interrog
gloss
joshua
kor
hector
##vey
##ndry
reed
daughters
shades
cities
##iano
tas
prime
troubled
bubble
hastily
##arre
deciding
suicide
whiskey
chased
tilt
##oen
deer
independ
lance
foyer
jerry
strict
rhys
kinda
werewolves
piled
juliet
bodygu
cran
capture
mold
limit
disturbing
hopeless
beloved
eden
spill
jaenelle
annoyance
deaths
sparks
roth
drain
puzzle
nut
choking
oppon
awh
levels
bunk
kneeling
##bbling
beasts
emphas
squat
profile
echoing
##udge
overs
abandon
assignment
junior
sage
celest
heaved
article
creek
unpleasant
unbelie
chad
pecul
haze
blows
##gers
fid
##gra
waiter
awkwardly
bruises
prisoners
dale
##ani
melanie
awareness
intelligent
garbage
temples
fantastic
generous
sworn
mout
junk
winds
feast
rabbit
femin
tease
decorated
blazing
levi
##power
shuffled
whoa
brains
##iders
divorce
16
impatiently
kent
encourage
pearl
belgarath
caution
artist
selling
##ays
##hi
harper
lia
##aude
taxi
awak
han
##unken
##ulating
compliment
steadily
exhaustion
environ
specul
##anging
sylv
regarding
dangling
coin
##rad
leth
intentions
slides
arrogant
##riger
lucivar
mant
trib
remarked
appreciated
tunnels
histor
refriger
clip
emperor
reject
##uction
##ooping
recru
##char
crumpled
differently
japan
studio
tests
bartender
maxim
capital
fuel
thoughtfully
skyla
reporter
conclusion
charity
##bling
##ban
charges
mara
sensual
promises
##entially
##ulsion
guarded
##worth
##celer
patiently
concentration
pills
safer
flare
lessons
humming
lowering
michelle
lizzie
partners
inher
##aneously
accus
fran
curves
##athed
inward
wrath
sparkling
negoti
loyalty
accused
lasted
offended
bin
##point
micah
##aire
peculiar
enthusiasm
##ctive
razor
sweaty
motorcy
##inter
crushing
burden
centre
##inkling
shri
000
description
stung
acceler
fare
allison
cassidy
tops
pauses
cares
wisdom
online
folk
visitors
scal
powder
awhile
twitch
##force
damaged
strolled
dess
##nge
##wind
phoen
belle
##ndy
conver
thankful
citizens
fiery
shrieked
releasing
discussing
luther
##zzle
faintly
thump
calvin
##mie
wool
albert
injury
jules
visions
picks
fest
scur
slipp
cem
cherry
compassion
soil
contrast
ecst
##rell
inevitable
jewelry
abo
brun
##cest
passes
snick
fashioned
##engers
officially
##oma
sham
##lict
conqu
roots
ambulance
ki
pole
tightening
hunched
sucks
assigned
altogether
##ooling
yel
messy
shorter
handled
cookies
##chant
fiercely
print
menu
skipped
resistance
lantern
multiple
population
irritation
huddled
casting
concept
disturbed
corps
##mail
attempts
embarrassing
yer
##akable
malcol
retreated
northern
tiff
cassandra
philos
streaming
cancer
sobbing
##uits
##bon
exercise
zeke
dashed
madison
dazed
delic
overcome
internal
rex
inviting
##rical
marc
##inent
phoenix
disappro
skye
paperwork
thorn
complained
vivid
vlad
sticks
rubber
commented
##aste
bites
bewild
presented
seventy
cracking
limits
##bag
##esday
slope
dismissed
senator
illusion
##keeper
weigh
christo
pierced
surged
stew
scul
urgent
jade
watches
dol
oblivious
sculpt
bic
##ienna
session
ignor
delighted
oxy
vivian
lords
environment
chips
apollo
bern
##itches
00
indul
method
appet
removing
furrowed
tuesday
##vable
##esy
restless
eagerly
supper
stove
envelop
##seat
unaware
amid
discon
tune
freeze
dryly
murmur
technically
circling
cargo
##ties
sweating
coincidence
malcolm
ford
##ader
##otes
disgusted
bolted
si
flickering
##za
##rod
speaker
inex
mead
##ppers
##mod
logic
jagged
exagger
cursing
patrol
gus
focusing
rory
boom
partially
cos
slaves
encl
rogue
attraction
valuable
##cery
gruff
forgetting
parano
chem
brisk
spanish
hav
absently
biz
incredulous
lissa
resolve
mixture
geor
folding
chu
slung
performance
merc
bruised
gust
##ighed
antonio
##olved
theater
##etan
tracking
mocking
awoke
temp
trousers
notion
strapped
shapes
pac
carn
ul
backseat
wea
construction
dated
tad
shaken
fund
catherine
deput
flipping
bish
##elling
recom
darius
##lee
district
budd
blackness
thrill
pand
surreal
##angle
aboard
##vant
machines
nadia
##ceded
dorian
stella
sunset
carlos
emerald
slack
sanctuary
advance
meanwhile
lilly
rational
##rr
reluctant
##chair
flex
pix
sensing
strings
hiss
schedul
winding
fluid
catches
combined
financial
marco
hire
##mic
##orse
lounge
communication
##issy
##usions
beau
backyard
spur
amaze
genuinely
gravity
laced
##pit
##isher
##ko
##osal
##rence
starving
toll
pictured
sasha
elaborate
fiction
mab
##eped
drunken
interp
##scri
##hea
aggress
sept
bonnie
chant
registered
rats
indian
swayed
france
downward
doubts
sleepy
felix
##imeter
cemet
kara
union
closes
males
##acity
dus
##ota
attacks
spells
##ito
comments
confess
cemetery
ancest
laundry
stilled
commer
##urg
pausing
dalton
tremble
strain
##ala
##ician
locking
nep
swallowing
merry
fantas
dub
magnificent
practical
heir
##oses
presses
mistaken
kaladin
boats
flashes
relent
packing
thurs
##ww
whimper
napkin
sprawled
accepting
scalp
prepar
numer
oldest
pencil
tended
thursday
goin
##kind
flav
eleanor
talks
obst
plo
serena
bumped
##apor
whimp
pregnancy
distress
score
dresses
prize
##apse
drivers
explore
unlikely
sales
##icia
greek
##zo
navig
##heron
brooke
filthy
caressed
margaret
arrows
illegal
flatt
refrigerator
attacking
teenager
##tegr
bout
gross
willow
shutting
sup
sacred
##robe
mah
proc
insurance
positioned
acheron
rapha
dial
ropes
arriving
wax
denied
clerk
scenar
claude
eag
sunny
scarf
convincing
reacted
venge
##hend
returns
genius
blessed
nash
mommy
initi
pond
april
luis
retrieve
daw
scale
variety
extraord
lovers
bizarre
##umbles
repeatedly
jonah
larry
hazel
buzzing
guts
rus
##hered
secured
neutral
smelling
meetings
bethany
mari
hopeful
motionless
unhappy
callie
scooped
goo
##ifully
joel
clad
females
helpful
##nesday
rounds
ric
grie
sympat
whistle
tool
##ishes
cowboy
##fits
elle
blasted
sobs
buzzed
wednesday
additional
heavens
education
conso
ruff
scoffed
stumbling
bom
undead
china
demands
identify
lana
##agues
stuart
millions
folds
eighty
surviv
betrayal
##atell
asshole
objects
resort
reserved
recip
oxygen
##alf
kitten
disgusting
feathers
##uffed
tire
##ulting
romance
accidentally
sly
depos
cody
pursed
dele
swam
tipto
diana
adults
proceeded
lurched
bishop
canvas
cringed
reminds
##amiliar
murphy
summoned
blinding
constru
chewing
examine
tut
motel
duties
rumbled
giggling
dj
##ustomed
portion
madeline
supernatural
##gic
silky
referring
cracks
elsewhere
upside
glittering
defensive
punish
exquis
mouthed
sticky
sawyer
robot
sock
bum
unfamiliar
significant
concerns
liking
delivery
audrey
##bris
void
fountain
evidently
classroom
gaping
outst
##ivity
dign
freely
andrea
francesca
shine
##berg
linked
brighter
encountered
phillip
systems
countless
solve
activities
brass
econ
talon
compar
axe
pod
midst
autumn
shocking
raphael
shack
pardon
stomped
cane
tribe
##bits
furiously
particip
expressions
pumping
largest
proudly
basis
whitney
cath
piper
altar
subs
glorious
dna
religious
cautious
piano
sequ
calmed
identical
fascinated
jem
stride
upd
pend
tiffany
resisted
##foot
index
nineteen
rug
depend
##inkle
##unching
raises
attorney
##ours
dialed
feminine
infected
stance
creeping
absurd
battered
dome
traitor
obey
mound
fee
stench
##icated
tales
dates
##ologet
consci
cue
drowning
timing
bacon
beamed
jumps
absorbed
##agan
lucian
gin
mused
sust
bedside
crest
itll
##omet
gulped
semi
##arming
withdraw
##alls
choosing
stirring
avenue
stray
##lder
startling
strongly
paintings
##irm
rank
strand
depends
choke
stormed
shifters
hilt
assistance
minister
stays
shifts
willingly
retrieved
delay
teachers
scraped
ninety
immense
secretly
saetan
column
sarcasm
root
##ela
defeated
sienna
##tr
roaring
##herent
puppy
##lands
theyve
aspect
wield
carr
plas
meantime
sunk
difficulty
##ody
outrage
orle
coven
eastern
possibilities
trucks
degrees
dramatic
players
gallery
reacher
rumble
drowned
##enzie
simult
cul
bray
britt
diner
eerie
league
peeled
relationships
oun
salad
happier
arous
skept
logical
ego
towns
arousal
husky
fumbled
hind
patients
offers
ledge
200
adri
disturb
gay
offices
highest
resent
confessed
uncont
phones
elliot
shark
alter
gunner
fingernails
chan
wond
sche
joint
##annon
barre
stacked
prophe
bastards
lame
alike
trusting
##igan
prompted
wasting
frankly
saun
specifically
complain
vote
papa
guarant
suspiciously
os
scarce
##yees
ana
positions
stalk
collapse
apprehens
peek
follows
employees
foster
masters
hayden
blurred
offense
gesturing
seduct
##uf
threats
mascul
##amble
huff
unl
nightstand
resources
##laim
##ailed
coy
stil
maya
hates
bou
layla
pained
weakly
##bey
taut
owners
theirs
celebrate
halls
##ras
virus
dense
##ciously
##quet
grinding
script
agency
gaped
mars
cousins
stain
mak
fans
##comed
appearing
outstretched
recognition
tones
og
hud
##bar
guarantee
motorcycle
requested
nephew
unco
partly
##words
sweetie
tissue
vital
suited
jerking
document
gratitude
condom
discomfort
applied
##see
thresh
stink
shops
predict
##azar
sneaking
##hou
perfection
dessert
popping
pose
knob
skip
styx
##iva
lacey
adds
achieve
tripped
dripped
pel
isabel
minded
acknowledged
rowan
debris
lecture
##anth
jokes
elderly
relaxing
melting
straining
bucks
numerous
diego
tattoos
motions
spaces
##ho
addressed
##sa
gee
abig
studies
negative
americ
beef
types
traum
##yers
muttering
##iac
heap
proven
##eland
christopher
huffed
alexia
tricks
mast
originally
omin
strokes
tested
gardens
passengers
conner
##azed
escaping
essence
bloss
importance
grimly
believes
exter
threshold
golf
##ologist
lucan
pus
garr
freaked
chunk
peer
daring
comprom
swaying
##quarters
##nold
##water
unfortunate
joked
##acon
orleans
nix
chand
loop
deme
joan
abdom
counsel
duff
improve
##uman
mexico
dat
amazement
poking
welcomed
innocence
illuminated
santa
metall
22
explains
##itha
weighed
eliza
murmurs
##olyn
region
mobile
marty
earnest
homework
olive
ronan
rue
quir
aden
ties
##rum
outward
patio
flies
debt
maddy
tide
plague
craig
severe
fighter
governor
sleek
##shield
teenage
asce
perp
murderer
flirt
ire
lush
caden
bubba
brood
discovery
admired
theo
relatively
##ressing
uncomfortably
perfume
dana
campa
flan
succeeded
slips
absent
uses
dab
##ein
##onym
harv
paraly
##istent
hairs
tighten
seld
##theless
kindness
cement
raging
nevertheless
soda
##mitted
accommod
arrangement
oath
brim
janet
##ba
honesty
unle
determine
academy
abigail
desired
##bones
console
organization
flinch
infin
mick
##hl
##inar
rect
clipped
nancy
resumed
motiv
bert
uncontroll
##born
cheerful
fucked
linda
##oken
naught
roast
conj
headlights
tyr
banged
rises
##oped
lewis
undo
lethal
shir
gasps
aliens
groom
hound
robes
intact
encoura
beams
luxury
elim
engines
nikki
wealthy
chart
bid
ultimate
##ummy
##reet
hailey
meals
cellar
##alt
elf
sorcer
yells
pierre
##otch
burnt
include
thrusting
lever
computers
stephanie
windshield
failing
##rus
commission
accustomed
eternal
rays
tavi
circular
phrase
glimps
scre
alf
scratching
borrow
##most
austin
nation
simpl
##phe
hasnt
divine
belongs
halted
##fted
tomb
splin
jag
slowing
indicating
overly
moaning
restraint
##och
fetch
goods
extract
visual
bumps
##augh
thy
agon
slit
gil
inhab
intrigued
examining
establish
carmine
hunted
acid
unwilling
displayed
pang
apologet
ruins
confession
kidnapped
sue
conscience
warily
##orld
lincol
plum
mode
unison
redd
messenger
cind
conspir
active
cooked
indign
plucked
concluded
##agn
fiance
lass
orb
encouraged
lining
##arn
lifeless
jolt
bind
grocery
competition
afterwards
purchased
correctly
nicely
stores
playful
bible
##ikes
attic
network
growling
chamb
kindly
copper
dennis
grasping
coughing
dent
##attle
dive
sweetly
prow
stairwell
descend
troy
swamp
escorted
##ryn
##orters
splashed
##rael
elders
throws
surgery
##aux
toys
coffin
moss
enh
banks
tasting
corrupt
swive
infer
warlord
handy
exposing
fried
##boards
favour
25
snaps
atlant
lair
##but
##ppled
unset
mush
##cal
ceased
forbidden
cradled
##mpt
##ouched
claiming
ounce
nonethe
rox
##oman
overnight
implic
lemon
disagree
tant
patterns
sloane
noelle
politics
plays
nonetheless
##udged
thief
deepened
mol
flirting
mace
glove
raf
philip
metallic
invent
clenching
inquis
photographs
sentin
harley
coins
erra
nurses
##ayer
lena
fortress
float
documents
headquarters
retire
discip
nuzz
shimmering
layers
asher
harbor
bells
characters
##ending
thee
outline
contest
##uated
##vo
regretted
bulk
coord
gord
parad
arrangements
flet
evident
irish
muddy
pey
veil
scooted
coke
cushion
##ovan
strategy
destroying
twent
accomplish
bared
##atch
launch
wraps
benn
lincoln
webs
unner
quin
paths
24
gram
native
bitten
satin
artif
erotic
tracing
indiff
jaws
silhou
woken
##load
banging
##acious
produce
##hire
effective
slur
##leton
gleam
ivan
##rons
simultaneously
deserves
slapping
streaked
##iner
bargain
neared
urgency
indication
conditions
investigate
marking
##chers
hudson
reapp
ay
gazes
loosened
padded
certainty
admire
playfully
respected
##occ
dur
receiving
shaw
pulsing
tabitha
cora
##ergus
manners
hack
pupp
photogra
vibr
needles
ezio
campaign
conflict
reflex
wyatt
proced
complaint
uttered
grain
vince
overheard
poet
handc
retired
cooler
vengeance
rumm
anxiously
##front
heaving
administ
philosoph
obed
chatting
opponent
compart
receiver
##aulted
##asions
clu
reid
terminal
prem
visitor
masculine
drives
##ivan
bitterly
roommate
portra
countered
maze
practiced
osc
engagement
towers
folder
chuckles
bax
unmist
picnic
##ria
execut
fidget
pumped
oven
snakes
advised
traditional
squealed
refuge
promptly
21
emotionally
reins
coax
carrie
retorted
appeal
suspended
##eraire
straps
temeraire
unbear
stradd
sauce
fights
ts
##prints
##dia
stumble
challenged
cafeter
bundle
georgie
burnett
anticipated
##0s
doyle
swiped
tile
announ
lynn
##wr
cafe
unsett
posture
fallon
aub
stamm
jett
frig
oc
pall
##works
darcy
concealed
religion
mam
yank
##ahn
horns
healer
development
whimpered
lara
warming
clawed
abdomen
##shirt
henri
puck
##aser
##chal
drawers
excitedly
blamed
florida
kait
battles
barry
crowds
veronica
aroused
brist
texted
walter
hush
raked
epis
menacing
annab
swelled
gemma
ashes
scientists
transformed
clark
cafeteria
hushed
mildly
accomplished
contrib
shannon
candid
##rigg
tourists
bracelet
imprison
unne
fatig
regan
##lene
bellowed
clarity
vas
bait
kills
contempt
tingling
underworld
majority
##ril
scrut
performed
##chell
##bra
punching
july
communicate
yawned
reun
##apt
unbutton
caves
##inges
worship
##hail
infant
guardians
teams
disguise
helena
passionate
temptation
##ilst
wayne
becca
##mans
bure
carly
##door
encouraging
dren
towering
aur
ditch
hans
sphere
##ntice
fay
gleamed
vain
gloom
balth
##iration
moans
##igner
attended
##hers
donovan
darting
therapy
adorable
knots
##ulars
terry
stalking
lodge
unseen
backup
rae
presum
messing
redhead
chemical
gret
##lom
gren
fascinating
aircraft
mutter
seattle
brooks
engulf
kath
##bted
pepper
##hett
##mph
ugh
courtney
congratulations
hating
kendall
sobbed
printed
chambers
smashwords
groaning
mesmer
dimension
tickets
graceful
zipper
flour
clinic
steaming
reaper
artifact
shattering
artem
profound
tumbling
vamps
etched
loft
disor
sipping
lila
inquired
subd
solar
##utes
promising
##yon
exquisite
controlling
entertainment
mates
alliance
vanessa
hideous
openly
##ambling
##of
dunge
lac
curly
surveyed
dancer
punct
egy
sanity
##ista
bourne
deputy
ot
chor
chim
walt
overd
shields
marrying
organized
casc
amos
verity
mikhail
##coat
spec
residence
coop
hesitantly
unnecess
ideal
##giving
verge
butler
##scent
liquor
cigarettes
tucking
sandwic
tempting
inched
cong
accurate
zeus
##iah
visibly
regain
millie
soaking
mainly
dag
ups
sixth
lexie
pau
fluff
endure
generation
established
rou
weeping
wilder
freshly
artemis
mare
##eenth
optim
##world
races
poker
extraordinary
obeyed
shawn
daph
##sell
suz
longed
johnson
snarl
egypt
extent
##standing
amusing
summon
exotic
scheduled
diamonds
occasions
susannah
jackie
cupping
orph
perimeter
factory
##hell
laurel
adol
limo
skirts
embraced
##idded
##oooo
limb
fuzzy
excuses
household
colorful
crypt
##sis
remn
ding
##aver
exasperated
tracked
principal
lawyers
sizz
snuck
reub
layne
mig
perse
kenned
stroll
dizz
heavier
container
jewels
someplace
ellen
rape
yanking
satell
craved
perspective
shriek
venom
nickn
captive
automatic
erik
##storm
situations
frowns
caressing
youngest
anchor
benny
sketch
reference
japanese
cri
##acular
welcoming
leaping
international
##occup
il
slither
trips
sneered
authorities
privile
traged
pickup
blessing
peak
wee
##inations
neal
whistled
showered
bram
rocket
latter
culture
fills
reverse
dot
advert
troubles
via
##ember
nonchal
claudia
complaining
necessarily
maintained
increase
reappear
moo
glint
electronic
frankie
locate
bureau
impulse
##itution
wars
anderson
##esc
bruce
guid
##run
##opard
costume
shuddering
gan
briefcase
resigned
coated
##xton
render
muscled
swat
##piece
tee
harness
alexandra
slower
bian
accounts
fergus
wrigg
hesitant
grimace
witnesses
anguish
##lod
paradise
brandy
catal
mackenzie
frequently
mitchell
##gara
margu
jut
harris
rotten
stem
loung
granny
manic
behave
flexed
pops
confusing
giggles
sympathetic
chir
lash
err
busted
##arring
loomed
vomit
employee
whilst
sends
micha
scarred
tid
perpet
risen
bled
reuben
##sen
##adel
##section
rebu
baron
uncertainty
acts
relative
admiring
manor
chatter
glistening
mau
daphne
ace
crimes
wardrobe
flynn
boxers
americans
vines
uncon
misunder
bursting
evans
signature
calming
polgara
lydia
##urned
nov
modest
grows
doubled
claims
twitching
knox
interests
previously
cot
remarkable
kennedy
##rial
##uls
cheating
robbie
audible
glee
davis
##kerchief
discreet
alternative
panc
abdu
handkerchief
mira
##kers
sprinted
selected
manif
writh
manny
adopted
tennis
nestled
##ox
intric
blankly
gag
patting
cattle
eman
bugs
surveill
india
composure
flutter
parlor
alexis
bass
momma
regina
nausea
##ayne
elves
pupils
glam
apply
corr
kenny
comparison
##olai
filed
##sters
##child
outcome
scientist
surveillance
behalf
revelation
marina
##cript
pursuit
##ucks
gaunt
ecstasy
##oused
##uished
carolina
alarmed
blan
departure
beats
suggesting
aiming
norman
##ounted
dawson
##amon
pyram
##oping
ranks
fluttering
quivering
splash
kam
potatoes
##imated
colby
supposedly
winkler
vine
bears
viper
brenn
repeating
astonishment
viktor
keith
bleak
connections
##rise
jammed
granite
tremend
interrupting
anonym
bandage
doorbell
basketball
dak
tracy
gor
finest
sarcastically
foundation
intoxic
figuring
wheres
joyah
linen
##nar
strides
product
prophecy
angled
contacts
customer
eyelashes
protru
robb
##mont
suspicions
flatly
dict
reese
blushing
couples
##anky
ribbon
apologized
kade
helplessly
acquaint
francisco
coldly
##anity
permanently
barking
aggressive
nolan
moisture
georgia
wives
##estic
octo
cookie
abuse
nape
hummed
butterflies
sagged
lef
##zes
glob
ticked
punished
dimly
wiggled
unfair
##ae
involunt
grandd
piles
rehe
jacqu
swings
crisis
lugg
rasped
ark
coats
##cedes
instance
gulp
twil
archit
##umin
instrument
peyton
rumbling
##ooking
sickness
speechless
awakened
fidd
october
exhib
priests
ultimately
thu
scrap
##vi
snuggled
eug
boards
##soever
niece
rash
howl
gabrielle
anya
##burg
demet
compartment
##ookie
architect
##aggers
alison
hord
##ienne
dimin
unsp
illness
referred
wears
demeanor
##you
decade
panted
plac
eb
solo
stored
luggage
bands
franklin
bodyguard
handling
fitted
howled
acceptance
gingerly
agitated
##othy
magazines
gregory
##yd
denny
flopped
uneas
skim
##mat
##encies
##put
bruise
spiritual
obtain
critical
cruise
spectacular
tina
23
##hun
appetite
nam
##brush
siblings
celebration
legged
##etta
rebell
mouthful
eagle
boulder
vick
rotting
execution
commercial
##ogue
treas
monkey
springs
scraping
noting
carolyn
responding
##atore
diet
shaved
##enne
conceal
unz
ori
concentrating
subur
discarded
commands
bronze
warden
ellis
trigg
shuffling
pirate
##long
##aina
escal
##olding
tilting
rippled
grandparent
clicking
packs
wheeled
lurking
greatly
cocky
rumor
mull
creation
nanny
stammered
supported
celia
queens
twilight
##lette
streamed
charging
grove
pussy
apron
umb
jin
microphone
shadowy
scenario
writhing
gis
womans
jell
chapel
rescued
valerie
boiling
purposes
##was
appreciation
samp
##assed
colton
harmless
hotter
sensations
vacant
feb
cans
denying
courtesy
trails
##hift
fraction
hyd
##net
howling
coal
gene
maris
fletcher
elements
threaten
##athom
whirl
siren
strangled
##ilah
blaze
gaw
hull
baff
jaime
##neys
lamps
exploring
groin
isolated
##hale
depending
tran
towels
excess
virginia
dreadful
nove
throbbed
typed
winston
glided
guild
theat
controls
desires
composed
##ilda
##olic
dazz
gill
yourselves
emptied
resembled
canop
muted
bever
conser
paranoid
tavern
surprises
searing
bluff
barr
cheekbones
wrenched
denial
swelling
##oh
comprehend
whipping
silas
vow
custody
hurriedly
rosie
jed
##car
tanned
scand
goat
flicking
sirens
cron
ruled
whatsoever
leonard
gerald
reporters
mortals
pairs
luce
##nut
tangle
marissa
treating
vault
persons
incon
kow
donna
increasingly
genetic
dodge
sum
craving
wither
undou
marian
bewildered
telepath
remorse
cramped
addict
flattened
mole
glued
consuming
reyes
lipstick
affairs
salvatore
marguer
woo
##lend
##ester
conduct
undoubted
nedra
clubs
tentatively
worm
stamped
indicate
##inals
inspector
unin
mirrors
helm
casino
tingle
eg
##ij
landon
depressed
steak
venture
wilson
unexpectedly
mons
##lon
emerson
poem
selena
commitment
brittany
dusk
##pent
obsessed
odor
marguerite
ii
beans
approve
kad
sheath
##iantly
tongues
tastes
sufficient
gum
cram
##licted
howard
vial
electrical
chimed
rejo
writer
candace
unmistakable
applic
reassure
wires
kimber
tragedy
100
nuc
##strom
makeshift
##wan
clare
##alle
crick
chilled
incap
companies
widen
creaked
bombs
battery
convenient
prost
##xon
disd
bail
ballroom
iris
causes
javier
stinging
freck
pige
groans
corpses
buckled
disorient
##gor
seet
mutual
identified
scenes
meadow
hyper
haley
plastered
hardest
clues
meters
balthazar
cuffs
arena
payment
quicker
##anche
badge
cela
undoubtedly
astonished
reduced
bates
static
flaming
softer
bathed
bernard
delilah
ther
grandparents
tet
butterfly
##jamas
##ahl
slashed
hugs
##assing
shuttle
ivory
rider
harshly
ald
pouch
vimes
vice
sadd
rend
smold
streak
lend
##onic
evelyn
committ
reh
ck
matches
observation
hears
jogged
condem
brianna
shards
unbelievable
doin
coup
hollywood
jasper
herd
classic
forgiveness
strongest
aval
##rice
##master
##icians
coco
islands
revolution
##lest
stubble
cape
climax
backside
paces
smother
##aryn
commotion
announcement
smeared
designer
twig
importantly
stiffly
experiences
radar
##stream
tunic
sparkled
waistband
tenderly
##ensively
spa
capacity
amu
diary
ominous
unders
subjects
risked
admiral
chilly
##inkles
greedy
seductive
jury
operations
refres
vibrated
fixing
##iat
pinning
hooded
parting
generations
##igo
scarcely
smallest
growth
suffoc
managing
muster
piv
abbey
clutch
##ffe
blazed
transferred
##occupied
##ortion
angles
clench
schools
worker
##iques
concert
unnatural
sweatshirt
thumping
##going
legion
corridors
slut
narrowing
alc
texts
shelby
measured
babys
oly
poised
negle
waterfall
celaena
brennan
##itious
##oured
crosses
hissing
policy
riot
draft
subc
weed
perce
littered
thie
endelle
guarding
crude
tomas
recording
clint
priority
counts
exterior
jai
gnaw
tren
lola
accusing
morris
recorded
ross
blend
skies
legit
survivors
##cloth
vaugh
kier
containing
september
wouldve
##bbles
simone
daggers
keeper
wept
curran
discer
suppl
drenched
nucle
reader
mechanical
commanding
spoiled
blindly
boil
longest
gestures
balanced
unbearable
substance
skilled
halluc
hardy
killers
speakers
##cs
chast
sterling
##edly
colum
brightened
lucia
oversized
reckless
yield
paige
interfere
grayson
##iors
disconn
sentiment
##kno
poster
nun
bryan
##taking
##burst
screeched
naughty
##stan
peeking
##hu
burying
##break
vert
dangerously
dalinar
aback
##step
regained
olymp
tier
independent
vegetables
##burn
horm
goth
##athing
abra
cycle
dre
recommend
symbols
##wny
borrowed
rosa
mandy
mona
photographer
bubbles
marshal
traces
defined
pulsed
thal
##west
suitable
sandwiches
squirmed
disdain
spared
visits
rivers
gretchen
teenagers
marth
gaining
##edge
planes
##rics
vowed
oclock
explor
pandora
##uation
sunrise
kl
lids
looming
lyn
uniforms
airpl
##boat
screens
relatives
hurrying
prose
leis
##umm
targets
beha
brock
gladly
archie
##unning
thrusts
cannon
##icity
abe
angela
temporarily
nell
wonders
scientific
wag
blinded
rattling
ruthless
grind
debate
kicks
fits
prox
peoples
providing
supporting
bitterness
##anse
basha
scheme
mischie
murders
dawned
##roid
adjusting
plea
dax
harrison
##bie
mischievous
twe
shoots
antique
checks
sights
lure
zev
scrubbed
pointless
hearth
arts
##ouses
easing
feral
endured
careless
laser
strick
chorus
##igning
jolted
vein
sweetness
bedrooms
divided
demetri
marching
spi
dismay
patches
valer
thumped
##maid
daim
disin
rebel
momentum
hallow
deafening
medium
leto
##itter
lis
galen
ricky
naz
creative
goodnight
posted
tits
moral
awaiting
lesser
conviction
##ersed
shitty
attending
kelsey
##udging
binding
galax
scales
carries
##wal
##aza
sarcastic
tart
beads
growls
wryly
treacher
warmly
leisure
##made
shovel
ski
plump
deepest
rehears
dissip
revers
bot
##pson
slacks
expanse
sund
africa
##imer
diver
anti
presumably
altered
cable
forearms
emptiness
craz
dill
urging
##omen
##chess
exaggerated
tammy
chemist
beautifully
applause
yup
doorkno
collecting
durn
squinting
honored
randy
gordon
beaming
seas
mercedes
annabelle
listed
pla
wince
trim
motherf
appealing
hurled
gunfire
attent
parall
drawled
fabulous
##tin
slab
sample
##stein
predator
rearview
sandals
tasha
accomp
federal
talents
benjam
stifled
##iko
production
unspoken
ezra
rico
hangs
monit
thirsty
tents
##wyl
squeaked
gracie
dew
whod
softness
resur
proposal
angus
rifles
ip
marine
immune
tol
duchess
infuri
wad
departed
episode
vod
caine
trance
plainly
disappearance
angeles
contacted
satisfy
consult
##nth
paws
churning
##eys
recovery
caps
##icks
waits
owns
dodged
diplom
pean
va
##itively
tramp
fairies
considerable
primary
resolved
lonel
upwards
puddle
shadowhun
fatal
challenging
pondered
rice
topped
libby
stur
sailing
evol
satellite
reapers
resign
fascination
january
50
plopped
eleph
chuckling
austral
buckle
torches
wist
personnel
candi
remnants
stale
lashed
cyl
butch
##ctures
apologies
sickening
allies
##wyn
##phic
douglas
bradley
dotted
dignity
shrink
possessive
frenzy
deed
arching
broadcast
canopy
chef
jas
strikes
cupboard
loth
cluster
shallan
hostile
tons
italy
##auc
assembled
hust
rena
scrambling
rejected
smar
talented
shadowed
vet
mun
disple
fearful
bathing
germ
##udes
mallory
sailed
##ggs
bennett
fisted
##hill
splend
continent
##fold
edition
##uffs
twenties
standards
##uously
ced
##iry
straightening
label
somber
boiled
skinned
widening
##itz
collins
accompany
singer
cert
sliver
pursue
bounce
sofie
stations
marvel
cheered
##ati
##iddy
blackened
cheerfully
insight
widow
butcher
curses
pajamas
darren
statues
lacked
compare
planets
approved
perple
canyon
serial
faltered
exped
nothin
insanity
worthless
rely
praise
brushes
athlet
reassured
##riet
##roe
evapor
belongings
itch
renee
unnecessary
whined
##osis
farmer
angelica
moms
screwing
##oly
sapp
##bour
stables
turkey
quant
heed
betty
##lines
##gage
protector
yog
ic
devices
thanksgiving
louise
irony
blinds
gurg
denise
spitting
vodka
oy
flooding
proving
genev
tul
##phones
##rings
##held
musical
##esa
phant
shepher
countries
latch
colleagues
bobbed
tread
sane
wendy
##enson
bren
dads
##amic
camps
compelled
successfully
radiated
reverber
##nox
insec
farewell
##rina
scowling
ferry
willed
presents
assassins
sniffing
##finger
impass
volunteered
seventh
ventured
disting
admiration
raining
##ocr
tremendous
##orous
imperial
termin
surviving
shin
reson
copyright
welled
cigar
doorknob
contrary
esp
pros
psycho
##ieve
facial
##bird
bursts
observe
##vol
upt
hmmm
connecting
adopt
ironic
regularly
meets
strewn
invasion
##oria
sharon
dup
##vations
##iots
##eted
##cases
##aneous
chal
potent
fools
pronounced
##renia
shrill
blah
karl
awaited
nuclear
wincing
vibrating
pedest
ushered
knotted
##gard
linger
nay
guiding
ancestors
cunning
lest
thri
november
trotted
acceptable
nas
##elope
ruler
sylvia
benjamin
differences
comfortably
december
kinc
entertaining
effectively
unfolded
acquired
bikini
spiral
warrant
emerge
##imity
warmer
##umbered
boast
parade
ashton
chained
glazed
##ggie
trek
iona
enforce
skimmed
daunt
tink
comr
rubble
##bedded
slippery
vit
elite
depression
graduated
interven
humiliation
baked
shh
distracting
champion
interact
impatience
raid
volcan
division
envy
slaughter
##acey
polish
##ustered
slicing
##ucker
##lie
weeds
cheated
published
sabine
titan
rented
rubs
pirates
nickname
distrib
demonst
catcher
stabbing
dungeon
soothe
nearer
sutton
erase
tah
##ailing
reflecting
sins
handwr
satisfying
##life
essential
##anes
spook
fellows
views
stry
stressed
adams
##izer
tory
intimidating
phoe
walkway
wade
artific
fey
skylar
##obile
liza
signaled
shrugging
confrontation
##ders
transformation
smoked
rattle
sonia
whoo
portrait
raped
gargo
bulging
tak
gloria
uneven
brakes
weakened
glen
risks
##jack
condo
kiara
interjected
##ettle
glossy
##ok
##inable
husbands
##assy
braith
chess
expectations
trickle
lull
##wined
chalk
seeped
issued
weaving
evie
gree
columns
outta
pointedly
loading
kincaid
poll
devoted
boarding
##sten
frail
fleeting
glittered
maps
martha
##ew
##ridan
wraith
sophistic
nave
reckon
interrogation
lave
cling
mornings
keyboard
practicing
sparked
sentinel
##antial
##osaur
error
extending
##ptions
trickled
bak
vance
devyn
durnik
lill
homeless
cheerle
zipped
deliberate
pins
striding
rental
lud
oscar
wesley
stricken
fraser
nikolai
45
sul
unease
costs
fastened
intimacy
experiencing
hunk
##leigh
##fight
overlooking
pyramid
niall
fantasies
##irts
lawrence
nicolas
bolts
hades
##abouts
reverend
committee
snatch
##fish
flown
seldom
silvery
descent
resident
disappears
management
exploding
conrad
cheers
resembl
colony
fighters
highness
quivered
stacks
harold
confirmation
hazy
drugged
##cles
budge
individuals
##ux
rustling
sensible
deter
beers
swig
aler
##anya
restaurants
instruments
thad
brenda
receptionist
buddies
dose
brunette
##omic
##hr
##rud
insects
crumbling
benji
gyps
sinister
annwyl
scrape
defenses
vibrant
graduation
elo
rainbow
speeding
phase
consideration
seph
##bec
merr
##bes
exists
bricks
persuade
hysterical
tomato
chemistry
##eem
##aki
expose
humid
admission
bachel
agenda
tourist
naive
cort
##asia
petite
##lit
darkening
collin
cushions
admitting
scurried
mos
nipples
##ublic
draws
dyn
disrupt
severed
fewer
diving
exasperation
orch
scarlett
tickled
dedicated
drums
aqu
phoebe
##ava
peters
maccon
sadie
shivers
mexican
dipping
hass
trunks
gregori
cozy
##gression
powered
ku
flap
sult
leash
##ufact
procedure
weep
chel
resemblance
bev
protoc
##ciating
intruder
fulfill
jersey
vacu
##ray
underest
russell
##acc
decides
myr
squeak
honeymo
gel
pew
expectantly
shimmered
straighten
batter
blat
plun
protocol
hinges
##ctic
crunch
inspection
supreme
neon
greasy
battlefield
pinch
puffed
confronted
bount
##leen
manufact
loneliness
retreating
##rep
biceps
elvis
##zar
contrad
attendant
incomp
tenderness
tolerate
acute
policeman
scotland
intellect
semes
arguments
##dox
##ensed
pendant
snarling
198
solemnly
patron
##ods
graves
encir
alleg
maddox
interv
soc
manh
patri
shroud
mutters
sullen
shim
twists
colder
scotch
gliding
snack
detailed
sternly
##nin
tablet
mainten
riders
##rella
inhale
institute
hammering
unlock
dramatically
eaves
understands
gracefully
republic
accusation
lys
##ington
vale
##ni
paled
##sea
ley
globe
elemental
virtually
##umsy
ridd
loosely
petty
ordering
soothed
steele
richards
doom
dred
infection
fleeing
gunsling
clumsy
demonstr
##iciently
cheat
maker
zak
efficient
impossibly
luna
blackmail
ornate
drill
fries
##thor
cocktail
cradling
stere
##approp
crotch
brook
arrogance
##idly
doomed
intensely
pleasantly
restroom
hend
suppressed
htt
corin
crackled
cindy
lilith
zip
##mun
haste
enveloped
phen
smoky
fatigue
smarter
bash
dough
represented
##itate
##icorn
ticking
nursing
##riers
prints
brew
musk
countryside
vaughn
squeal
tentative
bully
beckoned
heath
envision
attach
denver
vag
spade
hul
clapping
corporate
storms
snickered
louisa
packet
ridden
amulet
peeling
harvey
bland
fuss
nom
bulb
##kar
sift
curving
wig
cathed
penelope
laken
aroma
scab
viola
citizen
aimee
units
untouched
ignition
giants
consol
newspapers
dais
kurt
mund
##angular
evalle
reads
40
carpath
sew
stocking
briskly
celeste
draining
##road
forcefully
geoff
rans
operating
clouded
spiders
tobias
sadi
merit
##rossed
honeymoon
##word
tho
poke
##gon
##mund
dexter
evenly
verbal
mourn
##rance
outright
mend
fortunate
tiles
relentless
defending
cabinets
prayers
highlight
attacker
wearily
succumb
whine
pools
inspired
www
##ogen
obsession
cadence
inwardly
exting
bandages
##bul
rut
##mented
era
brink
streaks
sharpened
grill
dangled
cod
monstrous
braden
approx
nathaniel
umm
brack
##quin
braid
chunks
rann
inapprop
##yr
##keys
forgiven
scratches
renna
swer
civilization
unra
staggering
holster
kaitlyn
bloom
crackling
recovering
vane
ambass
fluffy
##oty
##yson
poisoned
sullivan
##rup
sauntered
conor
penis
##phed
transparent
tranqu
halloween
##bridge
grazed
jaxon
##athon
childish
unicorn
taryn
sincer
scents
motioning
mercen
spiked
drying
maneuver
##rows
tragic
proximity
##stage
cardboard
graduate
facebook
haunting
terrain
lazily
associated
##insley
goof
mating
urgently
fathom
##headed
crouch
initially
bisc
199
##gown
paras
stacy
clara
stim
fract
residents
patrons
gigantic
lacy
##bin
serpent
simm
darn
editor
liberty
unnot
sling
darlin
kyrian
kiran
delicately
fuckin
calf
mirac
salute
wheelchair
followers
gru
stillness
tubes
somethin
wizards
loser
fisher
purely
pipes
salon
cate
constructed
##istics
trot
##corn
rover
uncom
scented
semester
brig
expressed
jerich
smoldering
skidded
weaker
nico
preoccupied
oph
smoothing
oz
petals
jerks
bracing
innocently
giddy
mature
maintenance
foam
sephrenia
kan
kayla
echoes
faye
recl
projects
collective
bodo
##dro
slash
peach
subt
chop
realise
merch
executed
sailors
resid
idly
jur
detached
clown
sturdy
##iche
feature
clawing
intricate
irration
punches
criminals
fooled
##oran
bloods
##ielle
##eries
##asms
inconven
##attan
medication
##aya
noisy
downed
cobb
beld
plaster
cia
purred
##fr
prevented
locals
ghostly
##obs
mingled
prud
strictly
breathlessly
cliffs
stamp
copies
calend
poetry
leveled
fireworks
responds
radiating
vile
doorstep
interpret
nightgown
precaut
amelie
armies
european
rhea
unhe
maam
website
idiots
asph
teens
lavender
squared
merlin
pancakes
faithful
integr
##izable
reeling
##ucky
thicker
fus
byron
centered
mixing
##esto
arab
preparation
prett
sis
madam
robots
digital
knit
nuzzled
loan
muzzle
holt
horrific
obliged
industrial
##liness
##enance
outburst
maia
hitched
materials
restrained
reece
rival
coiled
risky
teresa
thieves
##kirts
habits
salty
sandra
luca
horribly
signals
spears
pastor
dots
pon
benefits
swirl
##vie
inherited
bria
contemplated
industry
expense
parallel
##ogne
superst
boundaries
williams
tying
barren
reasoning
embedded
valid
chis
absorb
smugg
streams
performing
kidnapping
rests
profit
gansey
hammered
wetness
cockpit
##estyle
rejection
##aska
lori
moth
beet
dahl
wits
gloved
##ottie
louie
futile
heights
##ricted
tingled
volunteer
baffled
##rem
##roc
flustered
##uate
skyler
##rix
strung
engulfed
poppy
gunslinger
inject
everyday
hooves
##version
guidance
carving
##oes
encouragement
sneer
tumble
burger
destined
solved
widely
distaste
gry
pas
orphan
##onsciously
cheering
penthouse
hairy
strawberry
inhabit
conceded
horace
ira
kah
quizz
trio
whirling
atlanta
depended
##celyn
dislike
sincerely
alche
sprout
hats
##inis
reactions
tribes
##cake
heres
##irin
spikes
mankind
milit
stalker
##apes
hugo
ignorant
circuit
viewing
croaked
##ormal
apartments
lacking
logs
festival
necessity
sources
dissolved
outskirts
infl
harlow
definition
cologne
experiments
cait
loosen
miraculous
imaginary
197
tir
aggra
genes
breathtaking
chilling
boomed
anonymous
slams
sneakers
massage
##far
##acent
brent
collarbone
bows
cd
actor
monitors
librarian
incredulously
splitting
consisted
quent
footing
apologetic
kitty
proposed
unwanted
latin
hallways
fingered
undone
sprung
tanks
syll
guarante
crook
minimum
slumber
##actor
arrives
lamb
contemplating
vigil
preserve
auction
spied
popcorn
barbara
##kel
##usal
detected
ouch
##pa
excru
stunt
therap
##osity
luxur
sheen
##alling
rita
moons
stupidity
##tos
monroe
miniature
alyssa
gull
clarissa
tasks
compulsion
skelet
gash
bonds
enclosed
harvest
pains
primal
sincerity
artificial
fished
##ocks
essentially
funds
bubbling
quickened
faerie
lem
laylen
tyrion
judy
randall
jocelyn
bowing
disapproval
snagged
immortality
shatter
clasp
sheridan
newest
tinted
##eous
roberts
wrestling
seeping
excruciating
unim
snug
jelly
hostage
millenn
wavered
sorted
blurry
wins
##chel
transition
sparkle
tuned
descending
overfl
styl
info
excused
shielded
mul
wrought
awfully
bowls
lifestyle
renewed
restored
diso
balloon
cronus
hows
snaked
crystals
whistling
intr
jacks
peripher
metaph
crouching
primitive
pots
silenced
agreeing
cathedral
quilt
housed
##mind
##icit
prone
##oren
donald
sincl
##lynn
truthfully
##rah
spying
watery
galaxy
mint
##atics
orche
holder
defle
savoring
adele
suppress
concerning
murmuring
scrub
jericho
##hop
falcon
michaels
reassurance
subdued
##essions
##ampoo
communications
##woman
verd
shells
unnoticed
dia
intercept
investigating
shampoo
trenton
weighing
##avan
##cers
##kyrian
cull
nykyrian
sputtered
array
zachary
threads
invaded
emerging
ronnie
wheez
pawn
rasp
glimpsed
##state
brat
serene
daniels
abraham
##will
crazed
sare
ainsley
##oons
##alia
grocer
##ocity
smashing
polly
brody
errand
weekends
realizes
barbie
reared
darkly
wretched
##ees
coron
##grown
mcke
ignorance
##iate
anita
mushroom
devastating
latched
boarded
tattooed
exhale
shaun
lark
airplane
jael
cater
kalten
##lah
nec
grips
hedge
heating
darkest
myra
twinge
woven
insulted
manipulate
##adium
cradle
historical
apprehension
noses
striped
bumping
##dream
booze
##iago
sau
triple
earrings
releases
arian
##ener
##ixed
unread
motive
articles
splayed
splashing
stairway
sinclair
crust
mirr
bounded
opportun
bianca
involvement
conserv
##zi
steered
##angled
separating
##ridge
27
explosive
subsided
manhattan
##utions
adored
##quate
clearer
dancers
noel
valky
rapt
philosophy
parch
##isons
##beth
##fol
##lson
fearing
attire
dirk
bethel
##osh
##itating
denim
katy
theresa
tattered
##ghan
stretches
scoot
discern
flur
rud
infect
juan
exhilar
mirrored
unsc
barak
scolded
herbs
notch
benches
remotely
israel
jeez
shard
remembers
humble
tori
snoring
swan
swipe
bos
insistent
nervousness
ambush
remainder
bounty
maiden
aph
convent
brandt
paralyzed
brenna
devastated
domen
insign
mercer
travels
cack
##gher
##pert
stuffing
balled
rippling
rimmed
seren
cope
fert
##irs
hail
vibration
steer
epic
comfor
wrinkles
indo
plush
plains
headboard
##hor
sprawling
marker
chills
boone
resume
irritating
twirled
perplexed
stryker
##fect
clap
kneel
tremor
nig
confidently
overlooked
housekeeper
flavor
intensified
agnes
idle
observing
flapping
meek
rained
grandson
bats
brett
agrees
footage
bryce
sophisticated
sprayed
flock
creased
indiffer
dealer
##inky
seduce
filtered
apples
considerably
spies
opera
eval
manifest
##athe
inherit
##eady
ripple
nibbled
whereabouts
grandchild
situated
heroes
##oked
##say
##proof
ingr
disre
wakes
enlight
definite
holidays
intersection
##lli
plummet
##adian
squeezes
scholar
handcuffs
bile
daydream
padd
administr
trimmed
theme
peep
scrunched
masks
endear
formation
merchant
billion
overse
brightness
chatted
runner
mateo
upcoming
doubtful
charred
silhouette
crate
passport
bridget
##making
rushes
##just
terra
preacher
horde
jak
##hot
##books
employed
kathy
sections
remarkably
novels
uncontrollably
dimmed
exert
appra
ine
trist
reflect
jug
defl
vanish
unsteady
binoc
straighter
avi
##teenth
stealth
terrace
##uro
gifted
officials
enhanced
drac
enthusiastic
##bid
taunting
hitch
equipped
inspected
intending
vase
##11
plunging
soccer
lowers
frequent
opposed
chandel
inappropriate
fitz
discipline
natasha
##ivalent
budget
churned
rio
hilar
biological
scoop
discovering
exclusive
shielding
bio
torak
righteous
caller
designs
stakes
28
##she
frog
##ede
decipher
consume
risking
##ilized
squirm
pigeon
gob
keira
##town
##glass
sector
evac
hostess
syring
creak
improved
hauling
clayton
##mble
slot
unmo
drip
convention
rides
##vial
uneasily
mortimer
masc
##fy
malach
appointed
##rying
pines
fling
starved
ariz
sedan
groceries
captains
throng
chattering
glimmer
glide
roam
scaring
impending
enterpr
poo
wilderness
##inates
offensive
fumbling
##icism
raymond
boobs
teren
mute
speck
aristo
caval
skit
reprodu
freder
emphasis
##rils
ruffled
nim
notor
evenings
villa
rewarded
merci
skeptical
asses
mcg
##aria
twinkling
swarm
stump
laden
##resist
resentment
ribbons
imprisoned
sapphire
sans
eer
##oust
##phil
##bro
installed
owl
ebook
cynth
agonizing
animated
penetrated
aeron
wail
gunshot
stitches
requires
laboratory
blues
opinions
comforter
nipped
asphalt
mang
newt
grunts
26
hauk
dispat
drople
cove
coma
convey
permitted
##owering
jabbed
dishe
crossbow
comforted
investigator
lothaire
##veling
voy
chelsea
pope
196
infinite
yach
significance
##aric
downright
rebellion
sessions
binoculars
resignation
shak
##ilton
##rap
vicinity
glinted
inserted
clothed
factor
traded
pillars
jazz
hover
momentary
executive
purposely
predicted
amara
stadium
strateg
expanded
tidy
lloy
positively
##anton
bobbing
frigid
##eta
ares
psychiat
predic
ridiculously
wedged
perch
madd
##gir
mell
overpower
##ieth
deton
tegan
sympt
chron
daze
##stru
sla
slaught
amazingly
dissol
patric
rubb
triggered
trading
effortlessly
auburn
tipping
earning
barefoot
didn
boulders
brynna
cows
saus
intu
illust
sinks
hose
##ppling
chanting
docks
solitary
peanut
grease
ducking
prophet
inhaling
calendar
hence
maniac
##ipe
bean
severely
wrenching
masked
madly
skeleton
passageway
ambassador
debbie
frustrating
subconscious
enfor
stuttered
involving
reign
arizona
tails
strips
courtroom
jost
warner
diane
flawless
samples
villages
publ
introduction
mechanism
sylvie
##elo
##cede
entit
methods
##idian
broom
##ilia
gogg
reynold
##iency
dimples
dreaded
lain
##ference
##ronia
suzanne
powerless
##mann
survey
catholic
encirc
laps
##yan
tactics
##itage
income
unmoving
bonus
crows
camille
adventures
umbrella
quad
theories
alarming
someones
thirt
quentin
kas
wailed
weston
circus
nicer
enforcement
flights
shrieking
##utt
##unches
##ares
embroid
convul
##oi
##ups
secre
sophronia
scholarsh
cease
conspiracy
hangar
colorado
lucius
screech
quinlan
mustache
badass
incor
loren
sidhe
lloyd
##opes
sporting
assessment
gps
nev
29
viewed
rhod
ruining
vacuum
rehab
thw
prodded
hopping
hurric
addiction
jog
braz
von
hod
ade
posts
gina
jayne
steadied
surgeon
enraged
elevators
trudged
germany
disintegr
kra
reah
shhh
percept
planting
african
35
kale
saff
mathias
unreadable
leak
tricky
advis
screeching
nailed
simi
minus
spoil
heavenly
##with
##brid
writhed
cau
jogging
diagn
dolph
trauma
reappeared
##ampered
defiance
girlfriends
lens
shyly
assail
battling
ingred
achieved
iced
##tops
winks
enjoyment
leadership
nations
sie
refr
recoll
royce
valkyrie
scope
shepherd
pelt
throb
languages
divorced
##stered
anast
carto
blinks
pillar
collapsing
gryph
whereas
armchair
bask
##iti
gauge
##acking
goddamned
cereal
channels
##aiah
ernie
penn
lefto
##ivers
signing
terrorist
shouldered
sleeved
reserve
##aders
hamb
grump
responsibilities
forefinger
translated
clears
bailey
taps
collided
unbuttoned
consent
##alski
shapesh
dodging
congress
beta
yelped
wallace
unpred
assembly
##post
graveyard
links
gad
abund
halo
##arek
technical
##isp
eldest
phantom
regrets
sookie
sap
##unction
##ciless
jefferson
yearning
merciless
arose
impuls
toppled
##isms
mocked
mckay
bing
##heast
anyhow
elaine
crammed
cinn
blu
brend
replacing
goble
award
amar
unpredict
zoo
congreg
spont
plag
quieter
breathes
briggs
wavy
crates
keely
capit
relieve
duffel
mesmerized
##oufl
satan
bony
earthqu
incapable
genevieve
examination
declar
archway
pater
jaim
meow
finch
nude
##imil
stripping
hormones
overall
grit
camoufl
slippers
fingertip
typing
##haven
cav
melod
peel
hoarsely
chey
shredded
http
cinder
bees
cyn
janice
compens
scandal
fry
global
replacement
filing
booked
supplied
shagg
impr
pork
ember
poorly
scares
##gate
##annie
tendrils
skipping
consort
##frame
##aith
erica
propose
cruiser
rebels
medall
vanilla
flann
cance
##avia
bloodied
depri
locations
whining
maur
dominant
andrews
seer
posed
ronin
##acco
elend
monty
plunge
##ousy
associate
assumption
morg
explored
analysis
therm
##cat
products
##aven
pitcher
erect
swiveled
cruelt
allows
vend
intercom
kowalski
charms
##utter
obsess
kettle
calculated
reluctance
virgil
acquaintance
miriam
##ficial
prescri
desol
irresist
travelling
solely
##heads
unzipped
sidel
civilian
##store
declined
texting
##mith
intoxicating
rak
suspects
ripe
raged
fragments
manf
prod
tourn
prominent
dazzling
##raine
heritage
unsettling
hue
##ensions
sammy
winged
shave
disconnected
kidd
undert
selection
vows
engineering
raspy
prax
flanked
recognizing
mentor
##hetically
tierney
quen
mundane
lodged
irrational
parchment
##hound
unleashed
orient
creamy
glares
drapes
tripping
unnerving
enchant
thrott
beatrice
sloppy
carrot
##gom
smirking
preparations
hike
mourning
domenico
indians
privately
complexion
##ierra
implied
reunion
notices
quint
puffy
hooks
trop
bangs
ary
hale
roller
splattered
glistened
##drop
##istine
##cass
traps
boxer
thundered
fret
villagers
meaningless
cinnamon
turmo
##nas
febru
##icable
##ansas
favors
underwater
##ucing
dischar
tobacco
compromise
hardwood
actress
banner
thanking
##sie
beep
grudging
douche
sickly
narc
confined
dillon
##atis
raft
saliva
retali
##asive
fours
stupidly
dominated
##isting
hunch
february
granddaughter
watered
turmoil
mickey
canoe
permit
wi
honour
camping
investment
gratefully
alight
##urous
athletic
##ivated
readily
despised
organs
corinne
sciss
stationed
explosions
sizes
hag
squatted
kol
indec
priestess
sailor
murderous
puppet
##riel
equivalent
hier
taped
thrashing
protruding
##tale
bobbie
porcel
oval
whites
talen
##acia
pantry
frighten
therapist
mais
quieted
garlic
##pple
technique
hagg
##ounding
scramble
coolly
trump
goog
clamp
##lement
sails
##text
gabby
##aro
scraw
amounts
secl
abst
palp
pads
involuntarily
fib
convert
##rieve
deke
seraph
behold
russia
orbit
magnet
roaming
immortals
mish
##abled
assaulted
developing
avalon
bef
sheepishly
athe
porcelain
detectives
tainted
sheila
contented
ambrose
arse
winner
cynthia
leigh
reasonably
gosh
deft
crumb
slanted
ghast
tac
explo
advise
bearded
eerily
ket
zayne
##spond
kai
##spring
##maker
nelson
soften
##donald
trolls
panels
ramsey
bidding
slade
honorable
album
eu
theft
tapest
uncovered
apt
unden
ampl
##hink
tequ
extensive
motives
precision
soak
everyones
stains
cleans
arnold
cringe
scribbled
##stones
admon
nova
prolong
robbed
loaf
##inson
rags
##atelyn
delivering
tig
##verse
##ckey
artists
tinged
favourite
quote
inevit
rins
rune
freckles
destru
##innie
kenzie
farmers
offend
solom
vanity
##ova
gargoyle
crut
tenth
nephil
##usp
ignited
luxurious
necks
tosses
oblivion
wick
sem
blasting
invented
watchful
##isl
slay
enters
crunching
microw
averted
hic
hardness
enthusiastically
greaves
##ima
##igible
##ogan
cruelty
cunt
unrel
basin
pars
bulge
yuri
mindless
##bod
legends
ely
peaks
charco
flute
##mitt
breach
princes
unusually
taunted
thong
canada
##ih
##aha
roamed
retort
grounded
gravely
attrib
swallows
intimidated
eph
orde
smirks
potion
##encing
heady
tequila
expans
devotion
erased
lions
earlo
recalling
engineer
creaking
facade
teleport
fero
seeds
pays
bouquet
elephant
curs
scenery
sexually
struggles
lyssa
alicia
defensively
##ifications
lindsey
brooding
synd
cid
veter
peril
##lana
ples
cooperate
orchest
##lain
johns
condu
measures
lenses
spins
acres
marines
correspond
##ei
##ichan
forests
mumble
beacon
canal
vera
##ffy
mop
##uar
##hall
##stal
litter
grid
appar
jillian
inexpl
##fle
swooped
##prot
boost
potentially
##ilian
precar
vulnerability
quirked
restore
weres
bluntly
neur
armored
threaded
harp
courts
devin
barric
sites
pans
alfred
phenomen
bryson
##backs
##arts
delayed
protests
dusted
chores
penetrating
paran
select
bodyguards
rooted
seichan
chrissy
entryway
shoo
illuminating
soared
blooded
wipes
delusion
bonded
smacking
moore
##alo
jeopard
bis
weld
ende
obscured
##uating
plug
twinkle
triangle
mm
##ucc
chests
vigorously
chau
scouts
iz
flailing
reasoned
salvation
mischief
tatum
##illion
disoriented
mong
overgrown
##play
moses
understate
rugged
farmhouse
ard
handwriting
ranger
joanna
##yss
clatter
disrespect
rhett
prentice
##locks
spotlight
rosy
settles
porter
harmony
meaningful
pacific
endeav
swearing
sequence
limped
nurs
convenience
shaman
glamour
retirement
ish
conclusions
gears
vivienne
reginald
amidst
bachelor
exposure
hotels
glassy
businesses
attackers
hipp
pitiful
baker
liver
suns
##blood
whiff
frames
##orescent
housing
##belt
gypsy
##fare
newcom
stony
shaggy
infilt
ach
forged
reliable
faction
employer
devoured
dv
goals
##olph
glinting
hoisted
montgom
blog
silken
cornered
pats
horny
jewish
counselor
jacques
pm
concus
##pie
maxwell
sherry
mumbling
miserably
rebuild
##onda
torturing
lunatic
##onia
sierra
ern
jacobs
depressing
reinforce
adjacent
##uttering
##iro
##ieur
poles
vocal
mentioning
tickling
teet
alcove
pav
bem
travelled
##oux
nearing
remarks
peas
freezer
sacrificed
adolin
mascara
##idal
leaking
undid
podium
reversed
resurre
dy
abyss
alexa
monot
prosper
allan
resisting
rammed
kingdoms
opportunities
brotherhood
bulky
conquer
furry
rustle
understatement
wanda
flaring
hiking
trench
rumpled
tackle
disord
steely
tugs
##aney
burke
adorned
bubbled
intriguing
lads
squirming
monsieur
##wick
watering
##ication
dunno
borders
charcoal
gale
starb
needy
##oret
flips
penetrate
emmie
##shots
disheveled
##agram
##rified
booming
pigs
hypn
wreckage
##rs
radiant
pursuing
lyrics
ordeal
footprints
##sl
ceremon
scrutin
thirties
scattering
##ichi
##ilyn
carmen
recoiled
##ourage
shuffle
##oodle
isaiah
womb
dolls
astonishing
tum
##beit
skir
##atures
gruffly
grazing
coursing
moron
suggestions
glitter
vand
edwin
leisurely
##free
contorted
leaked
judged
substantial
sali
otto
##bury
domestic
debated
cudd
tilts
missile
32
keller
celebrating
uncertainly
privilege
settlement
ome
switching
##rowing
unpredictable
burg
suggests
legacy
fanned
sven
##berries
persisted
repro
##heres
shapeshif
seared
##estone
dangers
santiago
##huinn
oll
peck
##rolled
tanya
##ourse
mustang
celebrity
evolution
deals
clement
calves
nois
instruction
cricket
cheyenne
rearr
rog
eighth
crumbled
##bbly
exceed
##ibhe
customs
droplets
untr
lighten
abbot
##anthe
recess
cooling
grassy
revolver
jing
bottoms
proclaimed
sweetest
##ocused
tolliver
bil
plaid
mahog
yoga
nursery
31
##aden
operate
turtle
pumps
bein
##cover
thrum
wrench
nephilim
mahogany
comed
anastasia
kle
baggage
skulls
goblin
presentation
labeled
magnetic
solomon
qhuinn
rant
subsequ
properties
easiest
dinosaur
heightened
intentionally
xander
sabr
shirley
shimmer
probing
christine
bunched
malik
syringe
looped
unmar
ammun
handsh
param
domain
sissy
wailing
insulting
benson
isle
##oline
remy
aislin
gaius
bane
gambling
##mers
seize
scuff
objected
raj
murky
karou
spectacle
accommodate
workout
coursed
pursued
wagons
sentences
motherfucker
dank
bowling
##nell
##ceding
models
montgomery
aster
zander
bends
##after
straddling
hurricane
dh
##cro
sheepish
pried
##nan
ammunition
lars
clattered
stomping
rabid
grizz
artifacts
irresistible
devoid
wholly
glimm
##lda
runway
corporation
recruit
layton
picturing
puls
maintaining
radiation
breth
covert
havily
hasty
albeit
hillside
##cia
freshman
foli
tormented
entitled
stacey
corbin
formid
syb
advancing
appearances
senseless
educated
ecl
refreshing
pens
peers
accum
husk
tamara
molten
merrill
pooled
##asar
bog
sings
##rations
labored
blaine
buster
legitimate
combed
succession
update
manual
crews
sibyl
minimal
twirling
abused
cleaner
apologizing
demonic
restrain
specim
roke
poly
magically
milo
association
toned
zoey
##rable
freeing
hooking
eats
lora
bertie
mysteries
retract
masses
alerted
delightful
##irst
beliefs
foliage
au
shrew
pasta
lizard
shrank
incons
fain
scholarship
virginity
unch
sprint
disconcer
cancel
chasm
recognised
##amental
secrecy
physics
pharm
autop
bicy
ful
##iami
maneuvered
nagging
##bride
comprehens
##bear
imposing
alcide
garment
manicured
##inished
cin
coherent
indy
unstable
dizziness
encomp
lyc
brittle
confines
summers
offspring
grades
approaches
flurry
##inery
distorted
friction
maeve
application
carcass
##that
blacks
cube
guaranteed
recons
persephone
lakes
surging
danika
vinnie
purposefully
expedition
menace
structures
campbell
weathered
##worthy
approximately
##iope
stepfather
directing
posters
alexand
inspiration
unwel
prying
stanley
##bot
##iceless
slices
knocks
##uity
berth
australia
miami
##colo
##uting
##othed
chi
##ulu
levet
craned
leverage
hadley
madoc
ariel
broadly
pivoted
hou
protectively
dand
disposal
##miah
flops
##mel
troop
sucker
calculating
shab
vertical
chall
darla
coral
reacting
candidate
formidable
baking
##paper
##gos
plaza
conditioning
persistent
##ettes
lays
cly
wavering
debating
stubbornly
grady
inhabitants
indifferent
##akers
khal
proposition
nicola
rectangular
constable
medallion
crop
cob
slits
hearted
spreads
rusted
savor
hesitating
brav
pinpoint
defended
##ography
academic
richie
regin
nudge
submiss
judith
dwind
maximum
ole
missions
possessions
rendered
apoc
understandable
familiarity
zel
zen
##leness
deuce
martial
sparse
corporal
neglected
carefree
shuts
expanding
steward
##girl
condoms
##illes
seduction
boredom
clicks
typically
scrutiny
wedge
##rane
##arel
homic
deposit
tightens
betraying
sabrina
glowered
##hearted
distinctly
transported
transportation
dearest
bucked
hollered
addy
barrels
angelina
severance
clipboard
pristine
monarch
generals
boyfriends
kilomet
goggles
##elia
amen
talons
midday
opted
addressing
bikes
unint
##choly
plead
satchel
crappy
scorched
gagged
trapping
frequency
deception
melancholy
delir
massaging
##kan
##ianna
earshot
outdoor
activated
##ieval
##cible
pepp
allen
snee
buffet
pouted
##rels
carpathian
evang
noticeable
objective
tornado
##amous
irises
##verns
respectful
##houses
addison
stout
seamus
addicted
medieval
kenton
brute
multi
candlelight
establishment
tous
timothy
peacefully
pearls
runes
vort
##kill
##hent
brethren
##nap
shoves
roc
otherworld
kee
cloudy
slithered
inscri
##urable
wafted
cloaked
surfaced
slate
solitude
chickens
##raved
betting
crunched
splintered
trystan
herb
relations
##istically
belinda
darts
##pants
patty
memorial
monitoring
##riages
heft
conco
raine
gutt
gardener
hilarious
mcbride
inhuman
platter
frederick
##urbed
kody
contra
physician
erratic
mord
wired
##uv
alma
insect
##anges
##lucent
colleague
derrick
reconc
chiseled
holog
lengths
reddish
ferocious
subway
bothers
entertained
lava
accelerated
likewise
ransom
fiber
##iciency
outdo
operator
stifling
tantal
worsh
cooled
##eer
##vably
sheathed
groo
##quo
consciously
predicament
paramed
spacious
weave
slaps
vint
##rist
outfits
outlined
whizz
grotes
lowest
alexei
translucent
reinfor
pint
##idi
asian
eagerness
disapproving
eliminate
drone
dashboard
stash
disem
harmed
presume
rummaged
##allister
ada
##vere
gloomy
speculation
largely
digest
doo
inad
appalled
snowy
respectable
squirrel
blay
willy
sniper
declaration
weekly
blended
thinned
##rimand
##phis
billiona
angelo
microwave
##founded
playground
grunting
contentment
constr
devlin
##blins
hinted
ooo
reprimand
whisky
affirm
reynolds
ench
caravan
handbag
##ictions
ti
##acter
zac
##ju
criss
bah
hark
interviews
vari
##arted
pricked
byp
dashing
mines
apprentice
yar
blot
stallion
punk
mugs
marion
briefs
##itals
##ami
sov
finishes
incoming
deplo
obscure
revulsion
fame
symptoms
palpable
zar
limous
ducks
seething
lect
voiced
dreamy
straddled
harlin
tiled
jayden
sidest
serves
stalls
flask
wheat
carrier
leslie
grenade
pert
separation
uniformed
triumphant
sculpted
soaring
mathem
nymph
rafael
aggression
reporting
behaved
countess
feeble
barriers
beverly
sphin
repay
freight
civilized
hawai
yacht
unreal
jenkins
flattered
couches
missy
strolling
bunny
cathy
breakdown
treacherous
rach
inability
lookin
confidential
displaying
entity
tricked
194
barracks
sphinx
lovingly
catast
classmates
bridges
delt
torrent
tendency
mated
vessels
slaughtered
ave
disreg
floral
##found
submit
jackets
##screen
pilots
notep
disk
delaney
reservation
deemed
partial
instructor
yawning
hypnot
timber
continually
businessman
tailored
earlobe
apocaly
ranc
sharper
rift
##iated
demise
sariana
attendance
associates
deposited
hyde
materialized
handles
thickly
voc
charley
##oleum
hoodie
harriet
presently
sox
##achers
fates
election
enqu
software
fades
strider
banished
flannel
##oni
blaring
chester
flexing
##beats
promotion
fueled
aggrav
strangle
wobbled
adept
titles
outlaw
##jan
processing
felicia
compliments
plotting
compelling
templ
fern
scorn
advers
##weight
loki
padding
hints
thugs
lumber
zarek
##rok
##rys
priceless
195
facilities
cords
submission
ingredients
squint
perceived
aspen
slu
columb
shakespe
##bir
jets
unconsciously
bened
##areth
certific
dc
feigned
ceo
camden
auto
cory
sunken
##opath
interl
seatbelt
brielle
beige
##eters
couldve
kali
nudging
warnings
scissors
gail
##non
##anas
stoop
exclaim
sheltered
grape
cages
tresp
astron
machinery
##iour
aches
chopper
travelers
eyeballs
lent
bulged
##cend
pluck
lifemate
squarely
invading
ravine
manipulated
guttural
##tub
##rat
justify
##osc
##ahan
underside
statements
pes
toxic
overc
treats
grotesque
bakery
aging
arches
persuaded
gulf
crane
minions
wisely
qualified
flapped
homecoming
securely
mimi
desks
connie
bm
foe
burial
faintest
wrecked
##je
spag
dumbfounded
gib
gushed
##roph
gettin
humiliated
sash
chore
assets
evaporated
pets
##amel
edgar
towered
ants
##bu
tiptoes
##imony
armour
emails
verb
belonging
inspecting
jock
crave
sorting
wiser
banana
forbid
splendid
goblins
hazard
bumper
seating
duel
identification
romeo
filter
extension
contemplate
ooh
##inarily
grues
royalty
resolute
matth
jub
saber
unforg
licks
puke
jutting
unchar
wells
snot
horrors
polar
clarified
complaints
enl
lucinda
coarse
cidra
sided
obnox
talkin
stifle
jews
strangest
shreds
amate
dauntless
winking
anticipating
suffocating
actors
spaghett
##ulus
christina
seriousness
independence
codes
spice
dismounted
beldin
##tra
formally
unfold
patro
massaged
das
eure
lus
##lust
##nation
distressed
morton
skimming
longbow
pixie
##ecting
pissing
maple
ost
clans
conve
marveled
interference
arianna
dard
unwra
ascended
vantage
##jud
altair
pia
elvi
strut
insults
tropical
ion
sod
ample
requests
gruesome
##agny
firelight
vanion
kore
floren
slugg
mayf
nightfall
meticulous
chicks
##inks
heartache
implications
surrendered
oracle
kev
sass
viet
##olis
coldness
countenance
intimately
slurred
drool
retain
mikey
authent
##shan
emanating
reggie
shutters
restraints
ov
##ldor
alist
unbelievably
haught
##iggo
lousy
gracious
ration
myri
unfinished
indulg
savored
scottish
##isive
intake
aristocr
jackass
##ilians
basil
manfred
viggo
unru
introductions
recomme
anal
flint
curtly
lounging
mississ
blaming
elected
vibe
mortified
crucial
roused
annivers
willie
viking
sockets
turner
burd
mosqu
hides
mair
expectation
battled
##inction
lep
monument
fiancee
hacked
explanations
parr
insignific
##llor
sensors
paddle
militia
eureka
pere
pike
agitation
irene
brax
pistols
universal
bearings
ammo
##iman
burly
shakespeare
unsettled
##raught
enticing
parisa
eugene
dum
jor
anyways
caffe
##ternat
euph
encased
neighboring
overst
trickling
##issance
compact
##ippi
spaghetti
florence
##matic
grated
surm
drawings
supervis
cakes
##escent
herr
preternat
reminis
thur
economy
gou
brake
maurice
##othes
loathing
tame
wards
crinkled
victorian
expressionless
juliana
wobbly
##enges
categ
expertise
assignments
receip
chaotic
astrid
spraying
inadvert
##imir
afghan
juicy
vapor
##roy
showers
creeps
accusations
jina
##ivable
kos
##inqu
orderly
##uz
grime
brewing
portland
madman
steadying
consequence
##borne
sweats
coloured
savanna
bunker
goofy
##iances
panther
newfound
artagny
mog
pathway
subtly
beaded
stooped
interstate
##guard
whimpering
##uminous
refusal
rooftop
qualities
artagnyn
stashed
define
thinner
zeal
wast
creator
winters
ore
distraught
bodice
horizont
closeness
##deus
mistaking
pinching
salem
sustain
casket
itching
climbs
alarms
acquainted
gnar
##arus
voss
phoned
induced
reservations
##ilation
anchored
coyote
##his
ballet
repeats
maisie
inevitably
drows
clair
hitler
heven
perception
throats
quarry
wistful
##ometer
patter
adamant
lanc
alab
sot
##uki
##ams
waft
imminent
compete
valet
veered
applying
jeremiah
viciously
moll
toni
magician
##ointing
##bound
flitted
homemade
##cup
interruption
clueless
teeg
##thened
logo
thumbed
##ranean
matthias
bloomed
bla
joints
menc
misses
dearly
wickedly
gilla
signaling
##anners
rol
##laf
musicians
aspects
##leys
stating
obsidian
##holes
bourbon
wriggled
##amy
##ulent
restlessly
undressed
foil
garrison
jars
carnival
nigel
scored
glenn
meter
dwelling
ripples
##burgh
mississippi
oncoming
server
batteries
cum
piped
irrele
mencheres
jigg
allerg
genet
rhythmic
tiniest
escapes
auditor
swarmed
bathtub
fifties
##cule
deceased
##dan
assessing
pors
##rich
recipe
geoffrey
bamb
##asse
##eston
readers
josef
edmund
uncles
worms
authors
converted
baw
##hat
##nam
##gal
tractor
defiant
mounting
hott
##fell
duct
blaire
soviet
##ittens
elbowed
containers
theatre
comrades
stages
##imented
monks
summoning
thompson
##ifies
softening
bonfire
halting
insisting
vintage
corrado
participate
alo
maids
calmer
grandchildren
wordlessly
saluted
hamilton
sorcerer
secluded
drags
maximus
inco
guides
##azard
##phia
alle
##berto
factly
gamb
flinging
crab
scorching
geez
indef
taxes
indulge
vary
freaks
chopped
punishing
atlantic
kaia
earthquake
##phs
tia
##inas
programmed
vanishing
##balls
coating
thane
principle
dumping
herald
matted
filth
producing
eugen
employment
plagued
alistair
overh
bristled
roo
##amation
fraud
alix
##ople
zakath
challenges
hobb
alternate
##sson
horrid
defiantly
pits
apologetically
solic
enthr
wills
kall
claren
loses
philadel
predictable
stockings
lime
##abilities
ruling
awakening
baring
bedding
banter
bustling
##nian
courth
homeland
##uding
warlock
bemused
##eller
##chester
particles
limousine
password
recorder
manly
concussion
angrier
securing
plugged
exits
fooling
kip
untied
restraining
fetched
datab
verm
##assie
slicked
barred
goblet
thrashed
existing
programs
resulted
refuses
polo
extrav
bard
greens
macon
overre
quer
grumbling
anniversary
oops
indifference
gild
insists
##ilipp
ferocity
cavalry
dances
##rade
##aments
newborn
##iably
freaky
tarp
lucifer
obligation
humiliating
fainted
##enna
inflicted
propelled
unbuck
delta
fiend
##asis
stocked
treason
awaken
natured
functioning
inventory
##oric
absorbing
bmw
mamm
functions
sultry
doorframe
josephe
bick
jaguar
##math
shah
shirtless
fragrance
angelic
hawks
bloodshot
auntie
distrust
duh
terrorists
##volent
voyage
tatiana
nobles
##ourt
fingerprints
danielle
clasping
slayer
perme
##chet
parl
shooter
scraps
wiggle
merchants
##zied
scant
raff
penal
snatching
onward
kristen
rendez
dile
##uhl
spon
bodily
provoc
announcing
saul
assurance
contracts
twinkled
babbling
philadelphia
mice
itd
manus
calder
terse
safia
abandoning
preventing
toddler
uk
alas
scrubbing
grumpy
pru
texture
beak
welling
musty
organic
firsthand
politicians
cezar
converse
tempered
stainless
stereo
ryker
predatory
everl
foggy
embassy
ryke
courthouse
outn
epil
puckered
slant
lighted
brie
deco
crescent
alleyway
##arians
##otta
floorboards
dishon
prejud
edging
kidnap
yelp
outrageous
legendary
cael
relish
maine
exhausting
##hard
braw
includes
jerky
milling
elevated
spout
install
reddened
##oot
tactic
siege
clarence
isolation
paranormal
pumm
##ackle
duval
susie
caged
flim
boyish
breeches
fluorescent
conjured
higg
##isation
##liner
dumpster
interpre
36
nag
timmy
perked
milky
markings
rendezvous
##ouring
dislod
elli
cay
aftermath
explosives
designated
unwelcome
##quer
operated
##hib
brus
kels
mina
bitches
hoof
waff
midair
cardinal
cherished
colonies
##rium
imogen
immac
acknowledging
shadowhunters
##card
decre
spain
cocks
sarge
abom
undercover
limping
poisonous
illumination
paranoia
tranquil
reeled
nothingness
girly
giguhl
virtue
volcano
clyde
timid
havoc
houston
##oodles
intert
tiptoe
bandaged
jinn
##andro
flora
crackle
buds
sill
spons
favored
##wright
##elessly
shrieks
cobblest
anat
notepad
##nity
bex
freeway
samson
saffi
epilogue
lingerie
grieving
theran
salary
slos
barbec
lashing
zoomed
disli
complied
hammond
glimpses
catac
lengthy
lanterns
gurn
lovemaking
displeasure
arya
stann
tangible
begg
whips
prog
lighthouse
stoic
civilians
navel
amazon
ping
deeds
lob
horrifying
buttoned
sympath
sausage
enig
morgue
##azzi
crev
youthful
outdoors
twigs
hybrid
tingles
##avering
##itan
##sword
courses
cutter
parks
intuition
spicy
knowingly
describing
##walks
impassive
##vish
soren
dusting
arranging
galley
endlessly
coloring
russians
clustered
jeanne
wielding
accidents
dealers
grimacing
dice
bett
sanders
ghou
beeped
##izations
obediently
throttle
stomp
rosewood
##enet
thundering
novak
billionaire
tully
opa
ohio
felicity
lett
legally
embers
uncharacter
gand
spart
irreg
germans
semb
trinity
muck
dived
##ogy
nonchalantly
discreetly
##retion
swerved
ernest
dimple
elliott
ung
##ols
amery
entwined
bead
awed
currents
stilet
##rawn
rally
arsen
niol
etc
unreason
indignation
eri
lach
blindfold
interaction
submer
wayward
##irable
hungrily
discl
dagmar
ollie
slain
dimensions
champions
tutor
leaps
minist
spelled
surveying
spawn
ony
prest
secretive
bouncer
breeding
ireland
dakota
rin
##stood
##chamber
leopard
paired
irrelevant
hiring
lax
olaf
pledge
##ablo
antib
administration
adjo
trials
anders
##pton
advertising
##atha
##wig
lillian
slime
##oli
warped
forens
testimony
obliter
embroidered
dilemm
##jama
motivation
judd
sagging
fearless
truths
cruci
relate
unnerved
eibhe
conservative
eibhear
##tails
tackled
slashing
gowns
lenny
forceful
speeds
insignificant
##stop
aram
bapt
ou
clums
bred
expelled
assert
tightness
38
bj
relevant
luxen
maureen
##then
scutt
prank
malice
aurora
disorder
ramb
periods
tousled
workshop
scorp
fulfilled
misunderstanding
truce
shakily
rept
##rians
zur
haircut
declare
grudgingly
##onte
disgr
wiggling
##mere
malone
overpowering
inching
onsl
mangled
goats
braided
cobwe
gareth
chided
responses
cropped
shrouded
gator
neb
passionately
##eration
lists
cadogan
multip
unharmed
stalling
##dling
scald
passages
procession
translation
regal
gasoline
ipod
onslaught
pondering
lysander
hairline
##spons
carts
sonya
##aum
grolim
donned
belts
overr
underg
hardware
literature
vegetation
withstand
plowed
forties
stormy
treasures
fable
sembl
##lined
##hap
percy
magen
marley
knuckle
##falls
submissive
manuscript
giselle
overflowing
packages
outraged
flank
prices
stripes
hostility
drummed
slimy
wagg
decline
hangover
urges
balancing
hah
unm
safest
expertly
##mouth
forge
retro
progressed
egyptian
dyed
nip
##aho
morrison
shaded
annual
stam
expenses
disbelie
##ais
shipping
##udding
frenzied
wend
defence
monique
harb
syrup
brutally
fres
lunge
optimistic
nana
alaska
wardens
fend
cheekbone
auditorium
pep
contag
##licting
murdering
citadel
flags
fauc
rince
sleeps
dissipated
bathe
savior
accompanying
suzy
tending
mann
locket
##urer
##tock
crumble
devils
hottest
incidents
fiddled
shai
trays
chimney
dreamt
jeffrey
montana
crump
cedar
sterile
stewart
fringe
scrolled
rincewind
brides
hockey
scoff
prosecut
comin
##anson
stiffen
furnished
##pow
unto
democr
walkers
eavesdro
vaulted
numbness
mailbox
fot
##mary
meand
thudded
institution
condes
behaviour
simpler
bans
wove
decay
##cliff
nibbling
rung
lops
##function
glac
infirm
fug
##nah
loads
negotiate
scum
regist
sustained
vibrations
rake
rambling
handgun
marred
predators
atlante
cylinder
flicks
lizzy
##lorn
##ythe
spasm
decidedly
occupants
##uard
##lete
lois
voicemail
massac
mosquito
costumes
mingling
inferno
marius
##agra
nighting
carnage
serenity
clutches
coaxed
infamous
objection
##oles
lasting
architecture
unpack
pleasing
chaiko
brynne
resource
caffeine
bleachers
cooperation
louisiana
oozing
ecc
##ighty
##wide
professors
##yll
sweeps
shaving
decorations
dismissively
mantel
patricia
##kas
decept
##affected
farthest
duplic
avasar
villain
fidgeted
avasarala
turquo
evangeline
scam
swiss
cryptic
reverberated
destructive
bib
unqu
jewell
##bourne
onyx
thayer
racket
inadvertently
trait
remed
breathy
bookstore
lucah
crops
##wall
trains
foods
obstacle
spiraling
volumes
lanes
memorized
jutted
flimsy
lum
heeled
camel
regards
throaty
sabot
toothp
hambur
##atus
upro
turquoise
comic
elias
secondary
niccolo
smugly
trepid
weaknesses
bundled
##face
ajar
wlod
sera
##ietta
refresh
panicking
psychotic
affectionate
2014
exertion
obnoxious
wlodek
##wered
greetings
gaps
seasons
sufficiently
tus
alcoholic
manages
quart
figur
troubling
unbl
mashed
##lley
berries
stinking
wright
rosal
occupy
volunteers
scores
ceil
spotting
bordered
booted
salvage
ruefully
reinforced
probe
nightcl
mcdonald
unconcer
snag
confer
brayden
kansas
holland
gateway
##naturally
ultra
loops
peg
tickle
berry
camouflage
impe
abducted
mete
transmit
melinda
##ulsive
astr
devouring
##tis
batch
tapes
mayfair
neckline
telepathic
chlor
ninth
archers
compromised
##kat
manuel
accuse
squealing
trev
dryer
transfixed
suburban
tuxed
suitcases
33
##uh
billie
assassination
tournament
pavil
exile
realms
cuddled
obscene
clambered
deflated
##river
##inous
##urt
measuring
envisioned
lopsided
pom
##rums
tentacles
franco
##active
imperson
edgy
devious
formula
preservation
reassuringly
dubious
lahn
meds
biscuits
abstract
tarn
chandelier
recommended
##erment
##loaded
dinners
disagreed
enchanted
experts
billowing
immig
wrestled
racked
bravery
aphrod
benedict
invin
mirth
biker
lookout
carla
width
puffing
chen
rosemary
tissues
pea
transmission
kurik
handshake
##ller
carnal
addie
confirming
swatted
dilemma
creed
rabbits
gauze
daimons
semblance
##lter
sumi
deepening
porsche
metaphor
extravag
raking
font
tamp
metres
##ibble
nob
clang
mule
setup
katrina
tabby
luton
##uer
campfire
awkwardness
biology
racks
projected
pointy
##olt
layout
featured
irregular
smothered
ew
bucking
intel
blasts
customary
sarehl
roofs
fingernail
##ellar
chestnut
urs
wolfe
undress
vibrate
opponents
buffalo
crumbs
footh
merl
hounds
nightingale
aed
sergei
curtis
trepidation
blatant
garments
edwards
graze
##print
khaki
rubbish
agh
divide
knitting
bobo
emm
undoing
jana
boldly
500
kald
##hy
almighty
respective
frat
operative
clammy
hypnotic
heave
meld
##brook
easter
baggy
merged
acknowledgment
paved
weariness
gover
pajama
peterson
jeb
sated
bonding
firefight
techniques
mummy
distinctive
microsc
roxie
notorious
preternatural
condesce
##table
shal
##ressive
ankh
pedal
ceilings
sobered
marathon
incess
generator
ecstatic
bruno
gnarled
disbelieving
shouldve
chy
##ortions
seaw
renov
anew
acquire
mining
nicky
laby
condemned
context
gnawing
ryd
disguised
gore
ulath
gast
sut
cheery
weights
chemicals
ake
unaffected
kirk
##ilize
##usible
insin
resolution
improvement
sanche
approving
catalog
911
gam
harden
classified
labyrin
telesc
bewilderment
itched
thinkin
unfur
pumpkin
crackers
portable
immensely
lemonade
##chi
barrett
expects
shrewd
thoy
talaith
bloodline
frosty
chipped
angered
sprinting
roxy
##ortment
marilyn
farms
##ibal
prolo
confided
dime
##hee
drumming
caitlin
luscious
invested
daimon
keita
edgard
starbucks
melaina
unfast
##ryl
##wayne
forebo
oaka
##archy
gillian
##abe
gritting
diminished
justified
keir
goodbyes
spectators
survivor
shabby
drifts
glue
implant
vian
##ando
plateau
psychological
brendan
fences
##verted
ambition
gerard
contracted
videos
caia
belated
##noff
moody
bossy
beckoning
wasteland
##kov
chur
aids
mystical
coincident
demonstrate
sips
starve
extracted
hustled
groped
gilbert
##scow
cruz
34
urban
verl
vegetable
welf
miracles
devilish
mabel
##wa
haph
hog
##ori
shea
insert
ellison
films
bicep
haphazard
lurch
contains
missiles
cautioned
deftly
foreboding
hospitals
prologue
randomly
conquest
demonstration
mesh
hearty
await
trivial
unblinking
##usively
reds
miguel
##dale
fors
mario
planks
toff
flushing
wisps
stanton
proves
hobby
demol
swims
##asters
caramel
asset
equation
sizzling
encircled
labyrinth
judges
hamish
zig
lively
hysterically
cured
batted
pak
trisha
rounding
losses
spends
##ceptible
horseback
bruising
shined
abn
cramp
labs
introducing
diesel
##ooper
lycan
oozed
whoosh
chopping
##ylvan
clementine
omaha
##rehens
fris
desmond
mists
outrun
isana
compon
##rants
shoreline
quaint
resulting
singular
furnishing
pudd
superv
shady
involves
sabin
matilda
bottled
paler
gwend
ragnar
rane
deliciously
gamble
lulu
consum
vianez
diversion
##aran
trish
representative
banquet
valued
lunchtime
outsider
summit
cone
disney
impenet
shares
accurately
conting
tatij
scurrying
uncommon
tatijana
ture
##esar
upsetting
dominique
overreact
sanchez
doe
##resses
relentlessly
##rakian
thorns
welfare
hacking
stap
synt
exiting
##bering
dina
telepathy
kathleen
solace
constance
sharks
giles
counterp
fumes
schem
precip
##mus
stupor
wonderfully
versus
sculpture
heidi
##ipse
stretcher
slug
disappointing
axel
webb
unsh
copied
cartoon
carelessly
dutch
thunderous
##flower
disliked
thudding
forlorn
dismissing
mechanic
frayed
rubi
asc
bosom
arnie
waver
efficiency
pell
monaster
scaven
calliope
##ifes
accented
google
cimil
sneaky
embracing
flourish
bracken
warth
##dog
dany
pronounce
boxing
canteen
gutter
admittedly
dips
cluttered
dougal
scenarios
unconcerned
atlantis
impecc
oily
navigate
##folk
blister
illusions
lockers
##pse
##itiously
hadge
digger
significantly
rogers
toothbrush
##atical
toad
glock
blooming
pitt
respecting
nonchalant
gadget
nour
noct
robbery
crissc
gurney
condescending
propping
pou
##pering
dreamer
bathrooms
opposition
scanner
dismissive
nab
wager
resented
mathew
ashlyn
trophy
allegiance
peggy
##heim
headphones
contam
staffan
lurked
infinitely
lendill
sands
capturing
##rd
##ahs
privy
aloft
toyed
mallore
coupled
##asan
tensing
jit
idaho
scrawled
##opp
receded
charleston
landlord
##forward
blissful
baxter
impenetrable
##tles
grudge
feverish
groggy
ashen
##thought
vortex
supervisor
##icuous
roles
barns
fruits
retrib
##shaw
murray
peripheral
rails
##anny
counters
doris
dabbed
fizz
snuff
2013
##pad
##acies
whack
purr
ryland
irritably
ops
testament
engaging
communicating
enlighten
alana
adjoining
rips
token
heartless
murgos
dwarves
policemen
boundary
seldon
myriad
##bott
intrusion
raoul
shadowhunter
##vard
##oral
extern
crafts
channing
mens
heartbeats
jackal
blossom
rummaging
##inum
barks
unprep
apprehensive
keepers
hospitality
ramon
comprehension
##mac
weas
alanna
jacky
savings
certificate
clump
pled
adapt
geek
translate
disconcerting
reop
usher
sidewalks
circumstance
involuntary
##bable
backstage
twitter
errands
pate
##atious
inade
unem
ambitious
shaven
volley
exchanging
pounce
##uan
bloodlust
pours
ironically
displays
seiz
gunshots
oaks
##abul
rapped
miraculously
tigers
processed
colours
sponge
occurs
favorites
asia
cray
coulter
aunts
northwest
cranked
bicycle
earnestly
nass
norian
ravens
carton
##uccess
estimated
palmer
writers
electronics
dispatched
cynical
cham
coloss
dominance
exhaling
mandor
bake
economic
rydstrom
carbon
prickled
marvelous
mumbles
miner
relo
storming
unfolding
kahli
hm
honed
josephine
hutch
infuriated
precaution
##cils
plantation
feathered
eard
hir
##wene
hobbled
evolved
consist
brilliance
rinsed
aftersh
ranon
flakes
glum
drooling
ethere
intervention
chanted
moscow
swirls
##ylvania
joff
breck
conducted
nightclub
lanky
switches
squire
uncontrollable
eliminated
pact
supportive
gerry
forwards
cheryl
sacrifices
##iom
hisses
unarmed
prover
happiest
desolate
retribution
##inos
daytime
elong
philipp
ninja
ravaged
##aaaa
nameless
inheritance
##ti
##nals
sak
perrin
recollection
majestic
swarming
sorgan
rowdy
memphis
##rington
ghastly
apocalypse
##uber
invincible
iii
assortment
unsuccess
egwene
dahlia
charmed
organize
critic
##aton
serum
tablo
fastest
tracker
scrawny
chaol
bess
inval
payton
beginnings
krit
##vil
betsy
martine
reverie
piers
compose
detach
bowels
emphatically
tantalizing
alleged
outnumbered
alumin
willpower
juliette
mantra
marcia
chubby
gilded
engrossed
poisoning
##uu
flats
dreading
riyan
hysteria
##eda
burgu
assistants
alexandria
##verty
##onso
confuse
aliah
ehlana
cuffed
hefted
coals
margie
soundly
aft
vu
bloke
credits
##iev
basics
triumphantly
sixt
tiptoed
kon
cuz
tahir
##abet
lithe
immobile
jarring
horat
despise
flattery
scrubs
cubicle
amateur
##lei
tasty
jugg
sidney
uninter
whiskers
similarly
presumed
kenji
aghast
unprepared
nef
cranky
tripp
deathly
profuse
barreled
cens
eart
##onos
insistence
conspirator
macy
disast
whisked
lapping
platinum
congregation
##gation
##fus
interrupts
multitude
##bank
comply
climate
execute
econom
lann
poverty
demonstrated
##rophob
faked
whale
##ungal
reduce
boon
mindy
shaya
bushy
bly
shipped
##boys
winky
faucet
crus
tux
billions
gentleness
borne
distinguish
specimen
skate
bastille
grilled
##emption
##hhh
crib
##bean
advances
intervals
torin
lawson
ensuring
marketing
intellectual
akin
papar
injected
fragrant
nisha
regretting
rotated
adequate
##etown
##sei
conceived
lorelei
jagr
airborne
mages
scabb
piling
magg
straightforward
##iki
turf
protesting
undeniable
disastrous
withered
subsequent
##ousing
scooping
whirlwind
orphanage
category
elastic
sleepily
akiva
tactical
targeted
napole
##look
ongoing
spaced
rickety
verdict
burgundy
slump
##ubus
recruits
barbecue
noir
flop
writes
turret
celebrated
sewing
joins
pretense
lifes
snorts
ascend
kelsier
coc
postp
kittens
vid
dozed
airlock
recliner
uncanny
enjoyable
pelvis
questioningly
tinge
appropri
vult
buckets
sine
delph
tremors
sorceress
rehearsal
reper
barrage
esther
inquiry
##lier
spooked
relinqu
inquisitor
bravado
terrific
snacks
paula
roars
incompet
##uers
publicity
obstacles
crippled
corm
luminous
cecil
gallop
lindsay
hulking
armand
roommates
elusive
respectfully
##breaking
disturbance
fiddling
riddle
ansel
repaired
##ends
realistic
casper
appreciative
dedication
quinton
pavilion
monkeys
invade
rupert
crystall
zep
consolation
zand
##tion
##fulness
subter
##marks
##eton
kyler
perspiration
counse
vinny
lail
virtual
seep
##umi
quarrel
greedily
coordinates
lured
##wen
yearned
limply
maddening
incoherent
dud
needless
bandits
squares
wiry
narrowly
neighbour
orchard
faux
righted
maf
captors
altitude
##kee
timer
bugger
phenomenon
lanthe
##eeee
ancients
journalist
fails
##liest
plank
pooling
rith
repairs
reloc
divul
perpetual
##ensen
corset
claust
ahh
seals
sayin
branded
squaw
##goi
orgasms
puffs
celt
unruly
##pool
##actic
pasture
##anni
##ologists
ono
unnaturally
##iggin
booths
##market
2012
hopelessly
warthrop
recy
verify
##ichever
howls
scatter
adore
forgiving
greyson
harass
##itory
emotionless
charts
disregard
weaken
bugged
festiv
forthcoming
margin
hap
relented
cogn
bedtime
tolned
##owned
downhill
numbing
cloaks
veiled
##thorne
sideste
slopes
ridley
ridges
obtained
mushrooms
##itudes
milton
morbid
holmes
rescuing
xanth
whichever
launching
sneaked
exceptionally
ghouls
sardon
stripper
onions
cocon
faeries
sansa
bounds
decorating
kenn
rei
carib
origins
stalled
puppies
ebony
gim
##abas
cald
##rolling
hash
morp
##vael
everg
graff
cables
moods
gwenvael
gour
noose
atre
proportion
aimlessly
behaving
alchem
pagan
##atra
soles
gris
discussions
##handed
ginny
breakup
fixated
dishwas
skys
##orns
crowding
recognise
plucking
dizzying
claustrophob
dye
jorge
pomp
##urities
unac
hateful
marna
furt
eighteenth
discount
politician
kingsley
##folded
proceedings
ethereal
rains
committing
engraved
butts
punctuated
meager
imitation
##irez
cyrus
tapestry
nike
partying
maura
payback
unimag
##anah
angling
cycles
mercenaries
dion
rebo
##osa
stranded
leagues
##rowth
dispatch
jolene
chooses
shawl
skittered
toms
furnishings
##isman
moor
sparring
monika
seduced
senate
tempest
boasted
toying
scans
showering
concess
cami
sag
probed
stragg
seethed
stitched
reprieve
infr
respects
ramirez
surgical
pixy
bloodst
hesitates
hiked
dilig
armrest
milord
carpeted
keenan
waded
append
berg
ler
grating
musket
mercenary
contagious
frying
broch
spectacles
unleash
impulsive
doorman
gibb
reneg
livid
pebbles
drawl
thickened
acutely
##aty
shan
##illen
jameson
intruders
rural
gio
tags
##atile
whores
gender
suffice
smelly
vicki
##broken
verlaine
##dam
spooky
choir
tedious
reflexes
bea
seline
##ilated
ungr
overlook
publicly
turbul
diplomatic
snowfl
freddy
splinters
kaly
##mall
ranking
reclaim
ceramic
sadistic
plausible
varying
traits
indig
noticeably
witnessing
elementary
jacqueline
rour
input
fray
deird
patrols
##rive
chirped
kiera
infuriating
coil
closure
continuous
thinning
technician
encounters
##anim
##aby
ashore
eccent
crater
visor
submerged
hett
sealing
##few
surfaces
instinctive
powd
overturned
inexper
hex
moroi
barnes
cuth
pleasures
competent
rourke
listens
yah
ownership
greece
corv
nurt
chairman
specialty
matthews
flipp
generated
blurring
industries
vitt
##usa
##about
manila
stitch
smal
user
bleached
kilometers
garth
##elf
attentive
unmarked
paparazzi
41
##hement
dinna
cac
##mor
##sworth
barbed
parap
mei
##cod
##bee
positioning
leftover
fow
framing
harmon
tane
nella
manning
endings
annih
galloran
monastery
haunches
wrung
marta
rattles
unheard
reinforcements
hath
##unes
readied
accidental
helicopters
kilt
groping
##woods
exceptional
cavernous
mounds
kathryn
##abulary
sixties
rhet
##di
heartbreak
##loc
digs
fidgeting
vehement
caked
yanks
rueful
blared
covet
sweeter
funding
frosted
intimidate
vampir
appointments
bacter
analyze
aubrey
athena
vip
balloons
blurt
submar
violin
jeweled
mckell
kist
##zel
##pin
##wy
snout
sweatpants
premises
coaxing
laila
jig
##hist
##quel
antics
violated
opposing
napkins
dimensional
iraq
fint
amp
cork
sharma
michigan
countertop
##itas
morgana
harvard
database
dmit
telltale
repet
juven
decad
trainer
rustled
queer
cocoon
disse
visc
strigoi
##ssen
redemption
learnt
ringed
dutifully
##mill
anom
##amas
relied
interfering
kif
desirable
leant
##runt
malicious
emphasized
wondrous
prosec
pies
pung
cooed
extinguished
vatic
unfocused
molded
obedience
dependent
deirdre
aide
voted
legg
deity
deacon
coe
maryann
hec
sno
snip
drones
caret
heater
nonex
complications
kaldar
##enter
filming
sophom
shrinking
lavish
inhabited
ketch
ss
sazed
sprinkled
unstead
scratchy
ante
constricted
lesley
rosalind
##helf
disinter
topics
dingy
mcco
wistfully
morrow
morphed
ruse
dishwasher
##cogn
dorot
affecting
provin
withdrawn
infirmary
external
##tons
knick
wallpaper
chriss
wooded
verse
unsusp
millennia
kitchens
unloaded
fondly
delusional
inky
##cock
brazen
savanah
plummeted
jh
tz
roshan
##swe
midway
riva
unused
calla
##laid
artwork
lina
highland
braids
vicky
dorothea
pref
aluminum
gait
lease
laylah
conjure
blanched
sundown
fawn
celine
reeve
horizontal
sensit
oxford
##pm
hub
faraway
styled
licensed
khan
##tan
flecks
47
lapped
unreasonable
##nia
dope
prelim
envied
phrases
curry
urine
unwrapped
##oids
##itations
##adon
skins
thrilling
feeds
exploration
nook
seizing
jama
##iries
curvy
infat
penns
bases
caresses
shrimp
nauseous
tuxedo
cocking
tennes
clive
quill
##cheted
journals
governments
martini
integrity
hick
zap
parish
finely
rainy
sidled
announces
advant
intervene
##kv
peasant
bets
rituals
recruited
##bows
vood
mainland
davy
crafted
##lins
coaster
barge
queasy
elses
preserved
cabins
cobwebs
ek
guine
passive
fuller
centaur
blossoms
newer
crease
ferv
loosening
##kh
knitted
upgr
incline
anticipate
appealed
underestimate
pest
ravenous
vor
bookshelf
devastation
mantle
baskets
mott
wulf
ignores
laney
brimstone
clumsily
profusely
winded
walled
davey
dvd
indefin
cress
spits
caved
buses
marquis
dixon
imaginable
psychologist
interviewed
corruption
tummy
##itutes
jawline
tanu
jaimie
sybil
ingen
indent
slavery
wagging
##apid
jez
observer
banker
primarily
distinguished
gp
nub
vans
clave
cohen
heartbroken
##ivating
calib
applau
##manship
acquaintances
burgers
manhood
##iffy
##helves
dervish
socket
brodie
undet
roasted
kes
implying
refined
eccentric
underlying
unwavering
overwhelm
selene
humidity
layered
rocker
bookshelves
improv
accuracy
reven
sug
##matched
succumbed
afterlife
enhance
napoleon
eliot
narasan
gems
prudence
paramedics
voodoo
alaric
emitted
tougher
tawny
saucer
headline
references
skeletal
nipping
##felt
nosy
darken
kerrick
riveted
dary
##hips
tribal
constitution
##alya
stalks
lounged
##wes
##itative
relayed
values
windowsill
nyelle
##illac
regrou
advertise
kifirin
pont
persona
memo
petul
sickened
lukas
laur
ashtr
motivated
icon
decks
adel
##thea
hayes
sizzled
onlook
rotted
blazer
sported
arlene
redding
argus
cycl
vibrator
indoors
ghoul
defenseless
fractured
##press
disabled
exhibit
asa
canadian
nightly
ceri
bureaucr
vord
runaway
julio
plaint
grimy
casualties
bracelets
jaz
highlighted
clips
collision
burrowed
##rogen
##flowers
thetra
hess
metis
milos
objections
193
becker
intertwined
teac
##dder
marin
cupboards
karma
protruded
sprouted
skeletons
puddles
ud
dinah
discretion
murderers
sabelle
disgrace
ditched
##rome
backdrop
occupation
tennessee
##ois
##isco
mech
##enach
doubtfully
lindy
lorenzo
flailed
tark
abl
slouched
caillen
flattering
heroic
lag
##roads
morph
superiors
empathy
fragment
expectant
populated
surfing
audio
cair
hive
##urb
boar
johnnie
##izzard
inhib
freakin
sluggish
cowering
fuming
camped
routes
cadillac
partnership
sassenach
batting
erected
scabbard
nemes
roberto
furthermore
flaws
##von
investigations
runners
retained
reconsider
pennsylvania
##atos
ariana
occurrence
djinn
kry
rainier
paddy
drilled
lordship
trampled
syllable
tabletop
rangers
chandler
##lay
outcast
flows
unans
jasnah
spontaneous
37
wagged
##wife
blending
antid
accelerator
fanc
psychology
timed
refugees
psychiatrist
bers
##adays
disgrunt
misunderstood
ingrid
inherent
chancellor
utmost
captor
stature
hastings
reckoned
fax
hanger
saints
abel
alleys
margar
brooklyn
laces
noodles
tablecloth
defy
explodes
##oscope
sensor
helmets
cuthbert
advantages
attachment
simmering
##sight
chimes
productive
capitol
laurent
supple
##bus
cheesy
petition
difficulties
tiber
sah
aber
negotiations
##whe
sentry
stuffy
energies
finality
zacharel
comrade
hunts
randolph
stocky
tomatoes
fiddle
washes
flashlights
conveniently
immaculate
##orie
prickly
##nor
justine
comfy
snaking
maester
damian
utility
insanely
wicker
garcia
cooks
fanning
reverence
diseases
kalyna
friggin
tome
fanny
##strong
bulbs
manipulation
ewan
detention
unsteadily
lub
##aka
recre
northeast
premature
deprived
afar
barney
tallest
##cap
exor
concealing
oars
briefing
##cakes
thug
michel
debts
pungent
luth
dilated
blaster
elec
elegantly
swoon
drooped
petrified
candidates
##ndes
nowadays
bookcase
attendants
incomprehens
jumbled
decker
ludic
pi
asha
shrine
##had
eclipse
amun
dras
feline
precautions
dummy
##grim
dragos
kadan
valerius
perks
decency
sparking
##dress
##roit
summons
juices
wyoming
overtook
ludicrous
unthink
ambled
roslyn
cultural
sentimental
cc
eun
iphone
overth
uncl
dealings
##parable
dismissal
recept
sledge
ener
immob
pounced
aloof
##odo
unconsciousness
substitute
catalina
refrain
noisily
sacks
cosm
##aris
whacked
frogs
weaved
prodig
##vat
thea
funnel
prickle
cubs
pouting
railroad
kentucky
unspe
somers
elin
assisted
##sham
persist
stability
underestimated
ply
restricted
mastor
yall
dos
clogged
fintan
canned
elic
founded
mustve
##oden
sibling
##eon
theoret
##olored
questionable
##dar
terre
thronos
pinky
companionship
pane
##ithe
blacked
cox
suicidal
nether
gurgling
42
##writ
##aman
steff
indignant
ott
wariness
hurling
narrows
julianne
gala
surrept
meteor
sled
##etts
nicest
mastered
eavesdropping
kram
stag
downs
unav
sexiest
springing
profits
philosop
actively
hurl
##maids
mutt
whistles
higgins
##arf
starr
blackberry
magick
proportions
deceit
spartan
faking
gorg
grapes
idiotic
removes
dain
wasn
knack
clone
highlights
refill
brightest
tabs
temperatures
inconvenience
##aba
overboard
callahan
considers
specialist
skirted
stools
comparing
treaty
atlas
trustworthy
mystic
wielded
cheerleader
##lift
##isin
nostal
alib
bode
scruffy
emanated
thatll
ploy
jolly
hypervent
##via
butto
skyline
empress
##yre
curfew
boule
campsite
nevada
clipping
superher
nonstop
cowardly
##gated
outd
chag
##aug
archives
recipient
beetle
colossal
dork
preferably
manipulating
quantum
##itzer
##irect
##otti
barst
entourage
brilliantly
bravely
monitored
jumble
##ggers
footfalls
washcloth
dissolve
queried
yol
posing
sniffled
miko
nuzzling
orchestra
##isance
##llann
outlet
chit
caverns
rhyllann
dumbass
watson
artistic
coolness
furnace
scrapes
accountant
wheezed
##arten
floored
mimicked
##leg
stow
blom
huddle
retr
enterprises
autopsy
##pot
##gio
marcy
bedchamber
manipul
barth
meditation
##iggy
derm
garn
brusque
impressions
quipped
chrome
exhales
croak
replayed
lineage
##ippy
blossomed
massacre
ange
classical
traveler
prickling
plumb
marrok
paragra
healers
gravelly
swiping
calculations
bau
pervert
halle
mard
listing
wheezing
eyesight
searches
briefest
wrestle
infectious
oversee
cringing
caribbean
marla
studded
purring
pocketed
provoke
lennox
disgruntled
slater
hardening
belatedly
gushing
##alion
streaking
enjoys
tangling
functional
##dad
chace
reeked
insecure
kisten
vomiting
unravel
overseas
elation
drastic
##ienced
##riety
drizzle
humour
cascade
oat
bellow
resembling
phillips
ruddy
christians
rotating
fiji
renaissance
blythe
buttocks
pensive
##isse
enzo
muffin
chime
childs
patsy
clearance
arik
rosalie
sentinels
##rock
##bud
snide
shrubs
prescription
clattering
caliber
palmed
antiqu
kevan
investigators
venice
authentic
##ioned
##una
greta
completing
textbook
liaison
spurred
treachery
yin
##mine
monthly
cordelia
thaw
classy
jae
mesmerizing
bettina
##crow
godf
worthwhile
brimming
gothic
rogues
zed
spind
stein
afternoons
adoration
sas
##nys
seag
hallie
##nies
rugs
##meal
andar
fearsome
principles
stron
planner
##erate
goons
soothingly
absentmind
tidal
kramer
alay
thereafter
membership
hawaii
receipt
tagged
anto
wrapper
psyche
accordingly
shines
relished
generosity
volatile
niklas
affectionately
grenades
inexplicable
indisc
aisles
tolerated
precariously
mafia
soggy
convertible
heartfelt
edith
accounting
junction
flirted
barricade
vatican
reel
marl
frater
comical
graces
memorize
dens
fitch
##neck
incense
harpy
comedy
vietnam
juvenile
##him
decap
plasma
##hyd
##estru
exuber
jennie
reveled
excessive
zigz
hurtling
##odes
mcallister
hometown
strawberries
uninv
unthinkable
vind
##po
finer
willingness
reyna
traumatic
slew
##lov
payche
dainty
maw
velt
traitors
edna
anka
compassionate
penalty
atlantean
huts
arend
##ifiable
fireball
feds
outsiders
##ilot
headaches
rightful
amiss
bernie
marcie
prostitute
coincidental
sall
zal
strayed
esme
nonexistent
##icably
natives
indecision
antidote
brot
crank
keel
artic
banshee
ein
fuse
mav
porth
cersei
teammates
psychopath
goddammit
exercises
implication
thru
allig
annal
programming
scrolls
sympathetically
yak
coverage
##plate
bribe
unexpl
jonesy
veltan
##rigan
balding
cth
##isers
reek
alluring
grande
morm
tumb
relishing
marshmall
millennium
latt
##mitting
muslim
winnie
baton
deterior
dapp
jr
kindred
benef
##eden
spas
scuffed
colling
salmon
dorothy
una
physic
crocod
unsuspecting
lightened
conflicted
earliest
updated
alchemists
charade
tarmac
conquered
tomasz
dynam
catap
cascading
##kvist
naw
anten
nosed
##orts
truthful
contradict
angar
withdrawal
kaz
crashes
talisman
broadway
competing
omn
##entious
bentley
dorn
jaunt
sade
##keeping
backtr
pebble
##blem
donkey
beeping
recognizable
commanders
abundance
##isively
caesar
adap
reliving
chaise
kaylee
norton
##rek
efficiently
mysteriously
sewn
edin
purity
##owness
##ileen
natalya
transpired
spik
sato
almond
sams
propriet
cascaded
sta
practices
negl
mockery
salesman
proverb
bere
aless
kneeled
medal
displeased
reproach
nemesis
popp
cleft
portraits
pedestal
##adi
coh
strum
##umbo
infinity
mckenna
emmy
angular
martian
arousing
assumptions
modesty
shores
uneasiness
homicide
jagger
##unci
headset
sonny
testify
modified
##abol
eloqu
shahara
##nae
protein
medichi
ferrin
lifel
procedures
rinse
comet
unimp
##ylon
abbess
puzzlement
ketchup
60
disqu
begrud
lucid
reviewed
gagging
receding
##agus
mats
dormant
briec
uphol
compat
directors
##rend
antagon
##bodied
tends
everett
estimate
afforded
upturned
haggard
newcomer
aes
##icting
smed
refilled
castles
ensued
granddad
onion
addresses
gulping
delect
chauffe
afghanistan
##etted
raquel
alexs
sarahs
nand
##orting
doorways
haughty
cact
mayhem
familys
unstopp
crickets
blomkvist
##umper
kari
vicar
leonardo
valeria
kiddo
##amine
compressed
continuously
archang
jest
arb
swoop
priorities
nit
shu
##illian
spattered
prisc
callous
pilgrim
ominously
whoos
lipped
assorted
kinich
brothel
##oster
garraty
distributed
catastrop
aquar
mehi
##oos
clink
cowork
roberta
snatches
savagely
##sions
nighttime
thicket
owes
##walker
refreshed
confed
consulting
brynn
fritz
flab
truman
completion
aligned
##arthy
province
energet
tis
##rine
##pipe
stagger
abroad
swamped
incom
spor
scold
tryin
silverware
graciously
overhear
franz
hiv
marlon
decomp
legions
cuddle
sourly
flexible
cauld
lycans
nerd
southwest
snarls
enthralled
onlookers
nibble
repul
kiev
harding
untie
rund
ogg
joyous
gulps
groomed
parach
promoted
creates
adoption
overcame
unaccept
##enting
uno
forese
skyward
annette
dispersed
levana
ogre
confine
advoc
##hammer
undergrowth
##yield
ambros
ronald
##ombs
firef
combust
engineers
expansive
unanswered
gert
##orial
symph
doubting
hosts
resemble
55
underfoot
##ancer
britain
endearing
stowed
##shad
investigated
malachi
dual
jup
scolding
presenting
feigning
brion
unyield
##shi
captives
scouting
dejected
wraiths
peaked
misfort
discou
rhian
snooping
camilla
literal
harbour
dunes
saturated
elegance
##protected
edinburgh
magnitude
stressful
stevens
hydra
##lem
##acer
saloon
saxon
wrinkle
latte
dulled
prettier
smudged
idol
magpie
immersed
clenches
hansum
elated
ahold
tolerance
prolonged
##eight
consulted
prized
asteroid
##yo
oppressive
balt
seams
cullen
ib
linking
##stri
bowen
kenneth
##pers
##orph
improm
somethings
dena
agonized
gaston
sweets
regiment
danni
gnawed
kinky
xen
patched
stylish
exhilarating
aa
flam
marika
rodeo
regine
rufus
##placed
scofield
squatting
lobster
gly
hone
viny
shudders
weasel
mew
emil
wringing
lessened
##impy
skeptically
nord
nigg
sassy
walkie
dispute
unyielding
pris
infle
lottie
##ptu
unload
acquies
trina
paste
murdo
pleasurable
replying
henrietta
priscilla
rump
holed
courte
formality
rudely
waltz
##hs
blizzard
bastian
##cules
crock
hefty
spank
impromptu
arctic
perky
lefoux
ursula
artery
fundamental
diverted
warfare
eduard
suburbs
##wo
##watch
billowed
preference
strategic
snorting
evel
##gee
galloped
helplessness
uncover
gauntlet
##illery
smudge
relay
spiritwind
infantry
strongh
myles
patton
singed
fucker
musician
pyre
shackles
ascension
inmates
##ooo
carve
esteem
bethy
withdrawing
##angling
reset
regener
rafters
elongated
witty
##iya
unatt
vomited
nuns
seagull
##human
##ao
##erting
teagan
kinderg
retrieving
spheres
cmon
##abel
twined
hob
mortar
barker
arsenal
salander
reborn
flares
lasts
animosity
convicted
maneuvering
merciful
nil
##sels
bustle
fulfilling
straightens
eris
pulses
dispose
2011
emmett
##dor
##orah
consistent
dori
ayden
pim
maroon
inflict
regions
fella
oasis
##rised
##vious
shun
outpost
paragon
splat
unconvin
prosecutor
nazi
inadequate
festivities
##udges
reef
synch
deputies
moust
unlucky
##inth
blair
unke
cammie
communicated
uriel
arise
bret
steeled
georgina
##aj
##utable
soiled
squashed
portug
distractions
mache
territories
extends
initiated
maz
heartbreaking
worldwide
gutted
publisher
andra
liko
pesh
unprotected
hamburger
faul
barest
##izers
diseng
boulevard
disad
speared
stanford
whoop
chet
##cio
freezes
relaxes
fashionable
##fires
abide
##iences
versions
antibiot
44
spee
filtering
franks
bingo
mandorallen
snark
##cier
tucks
historic
flound
skidding
vocabulary
surmised
skyscra
foolishness
residential
unscathed
##cage
adul
flopping
baley
catelyn
acrid
bryant
epit
inferior
attentions
bam
##pour
confisc
physique
saddened
jakob
##sweet
fervently
inert
##actory
bale
##ussed
##mael
touchy
ahhh
clarify
unacceptable
##onis
##eties
drooping
mila
pag
hellhound
lotion
capabilities
pimp
rooftops
decorative
sheree
minion
numbly
cushioned
gawking
accumulated
spiky
stronghold
##oan
##addle
bobb
solidly
convulsed
sophomore
recited
incapac
relying
wifes
spackle
folly
mase
chas
disarr
fuzz
ellas
riddled
ashtray
murdoch
vinc
##scott
audition
grieve
logged
bonnet
intervened
canceled
keirran
sulf
greene
praised
initials
necrom
leggings
speeches
tilly
##acker
##erys
adoring
morf
exams
falter
sorely
mikes
endeavor
cherish
coroner
gape
vee
provisions
archae
sidelong
cents
##ghus
##etti
meaty
meadows
vinyl
ebon
##zac
trink
defied
eros
##bread
impaled
unkempt
schm
alabama
unstoppable
##lid
meyer
expend
##ambles
patriarch
##kk
relive
trix
varied
optimism
dys
orson
insens
antis
##sticks
dreary
corro
solving
captivated
hallucination
coconut
##ym
scampered
admits
fearghus
robed
footman
##eroom
deple
wanton
stevie
regaining
axes
dolphin
degr
factions
galile
lilac
##wer
##adder
embo
burner
misplaced
wispy
permeated
annalise
janson
##bolt
hummer
hotly
fistful
##lihood
braydon
churches
kong
numbered
gangs
carrots
##oter
sergio
reform
greenish
waning
perceive
ct
##gd
shol
neighbours
sheriffs
blatantly
opaque
dully
##atable
##urals
##estine
strat
estim
carda
facedown
espress
gia
feist
inclination
banister
aspirin
kite
trusts
nobility
##xes
eyri
##atee
quell
sixteenth
antonia
terreille
retail
excav
##ippers
cashier
clarice
mechanics
obedient
vigilant
smedry
staked
surly
persuasion
crested
ablaze
hyperventil
zipping
##itous
chow
blunder
lightening
slows
deranged
pupil
beforehand
leanne
pulp
culpr
kael
##ags
moreover
trajan
foremost
entranced
cleansing
clinical
crutches
##cor
beaches
reflections
fluids
ness
##cons
prodding
peac
spewing
transmitted
reserves
jostled
opener
##heartedly
aure
carver
raiders
petting
spirited
bevier
amended
defer
wedd
starboard
descendants
##rove
venue
pixies
dune
moose
couldn
scaled
redeem
davids
##alis
laird
tantrum
pulsating
daryl
delectable
##illo
leona
priss
sleepless
musky
cocoa
doth
krista
wafting
atreus
forks
diaper
markets
unearth
observations
faculty
spectrum
crowned
asyl
briar
arcad
bloodshed
tirade
sce
banked
clumps
heartily
maax
updates
grainna
katelyn
##rusted
gunned
radius
bounding
flirty
lectures
weakening
galloping
admonished
avenge
##ono
clash
raleigh
insol
wisp
attorneys
conveyed
weir
seasoned
tiring
##llers
hermit
moira
courier
infused
rasping
nuisance
##otype
jc
zh
gwenna
hoard
streetlights
graying
##azzo
specter
hologram
graffiti
forfe
mussed
48
iq
lumbered
##fix
unrest
markers
rhona
methodically
richer
distantly
competitive
celestial
amplified
stoned
caw
naval
myths
kaspar
steaks
bathrobe
##regor
inconvenient
hecate
agatha
lottery
tynian
lyric
buzzer
zelana
dant
pore
testo
##uper
erland
proclaim
gramps
benj
lorna
perceptive
anatomy
testoster
ascertain
spices
##icky
kneading
matte
supermarket
imperative
chort
prohib
secondly
floods
bhell
thereby
watchers
kata
injust
ineff
seizure
bhelliom
riff
reen
chattered
allev
arn
chevy
oklah
nikolas
simplest
likelihood
claps
getaway
graphic
etiqu
albret
dres
inland
garg
romans
romulus
##islava
smitten
pudding
considerate
foolishly
##war
orbs
assessed
cori
indigo
valleys
advisor
aggravated
scuttled
perverse
weaponry
testosterone
##iary
startle
cors
crawford
convict
kayden
dismal
300
erud
naming
frodo
smartest
alphabet
squadron
dinosaurs
etiquette
##plo
powerfully
spiraled
bloated
disposition
expressing
myrtle
quizzically
poof
overrun
revelations
appraising
extravagant
wadd
##bet
##esse
trashed
wroth
subjected
billings
logically
vacc
traditions
##adas
coraline
readings
norma
parka
bombing
rectangle
demetrius
registration
##adic
chassie
contend
findings
##spective
incarn
radical
detector
vividly
aro
##arina
##ido
raving
jerus
teddie
worshipped
lyle
wreat
willem
endang
hellish
magist
coughs
bounces
experimental
cackled
##eing
##send
handi
skitt
gunman
mystics
oreg
diagon
centers
banned
barreling
##birds
fru
##space
confide
linoleum
kaele
mckie
vials
sadeas
miz
withhold
##ights
fingering
locke
organizing
dispens
twentieth
fung
mails
##washed
##alation
##ppe
lowly
oklahoma
##sons
trooper
pitching
inquisitive
shapeshifters
##court
reined
props
halves
menus
travers
lessen
unlocking
drummer
##rec
##icent
specially
branislava
sketches
specifics
sifted
euphoria
vehemently
encry
trotting
formerly
cacoph
olds
minho
##unders
awaits
##bags
adolescent
rejoined
bloodstream
earpiece
colonial
yielded
##atiable
semin
sloping
carrow
sunb
concession
hemp
readying
envious
spaceship
##urred
realising
estates
hammers
brutality
briony
drab
insatiable
squeaky
berlin
administrator
piqu
reagan
slunk
ungu
guff
adela
donuts
contemplation
lumpy
cadeon
huskily
##agna
belliger
agreeable
escorting
##eed
##oto
##aths
morals
pastry
violation
whitley
blessings
indignantly
wriggling
##drops
lancaster
gidd
##uels
align
unacc
christy
starvation
rumored
eddy
monstros
cubes
allergic
kaeleer
##itone
welt
neville
leve
finance
starters
yarn
tris
floats
flickers
whims
repercus
disposed
oui
rhen
wench
##ules
parched
jerome
flinching
philosophical
90
blas
##spread
velv
steadfast
sleeveless
nast
skul
##umbers
##amedes
southeast
dialogue
ministry
tally
##fts
howd
anguished
hundredth
lorraine
ezrina
stannis
sholto
yam
upbr
prescott
afterthought
noncom
henrik
writings
hodge
oregon
uri
##arity
myron
intro
donny
jamison
beady
##uned
insuff
dilapid
crutch
aka
porn
stutter
headlines
unhooked
crucifix
preliminary
slush
perish
hells
eventual
complimented
researching
reciproc
assailant
sidestepped
##mant
##rates
faults
imprint
cuddling
loathed
gravy
veteran
adversary
bleary
racco
envelopes
biscuit
midsection
cupcake
teacup
dayton
decaying
conflicting
squeaking
witchcraft
sifting
dolphins
fes
gush
sard
##iph
packets
##ricks
faceless
sundress
sputtering
woe
hops
fudge
##rag
##unct
##portant
crevice
unpl
grumble
darkling
requirements
gaent
dors
##agh
unevent
zook
petra
connell
persuasive
initiate
telescope
##arin
##ptuous
farming
alphas
##xual
breached
unfriend
handiwork
thon
alain
plunder
skating
##condition
apo
folders
irrespons
meekly
fiss
##rust
shedding
abre
impot
uncaring
nickamedes
disobe
39
rouse
##iard
believable
detroit
admirable
dac
##hey
stumbles
##still
##insky
provoked
inquiring
enclosure
##sts
isis
leif
mortality
departing
astounded
rigged
innate
ocks
creases
souven
scholars
aerlid
sewer
lt
pse
patrolling
separately
oblige
represents
overdrive
inexperienced
alibi
alayna
##estion
infested
galer
mimic
##first
johan
conversational
mediter
venus
duration
peephole
##asta
hench
obligated
interpretation
rhiannon
asylum
##yles
contempor
environmental
aggressively
tzader
draping
squeals
99
kader
##gments
canine
##asso
airy
nes
dozing
deadline
garde
privileged
abduction
abortion
leila
dehyd
intoler
warring
yea
entrances
hooker
lawns
steamy
simplicity
erudite
discard
takin
scalding
##mys
tod
reiter
ensured
avalanche
havin
goatee
enoch
willa
wald
victorious
overweight
pursuers
##faced
##elin
spasms
faery
sparrow
titus
whome
myka
chords
concede
##ombie
dubiously
discharged
meticulously
unbuckled
catastrophe
pseud
##nings
impart
delirious
catacombs
vacated
publishing
upbringing
lacing
baritone
indiana
ensla
mesa
aphrodite
bluish
wage
resounding
drak
crossroads
flyer
holstered
deceived
kindergarten
jakes
curren
utens
dictated
fisherman
moustache
machete
algar
wrinkling
busied
demure
gentry
queue
olympus
mellow
recesses
##vs
altering
slumping
snore
painkill
persian
prophecies
vitam
espresso
##oom
staining
funn
spanking
##akis
starra
intrigue
##mart
##lless
##oda
pedestrians
patterned
mediterranean
##uli
bogg
guer
##helm
thickness
deborah
hailed
underbrush
ape
handcuffed
kimberly
whomever
madele
tristran
kaderin
surp
diagram
endurance
sye
hollowed
bordering
corrine
unholy
escorts
financially
simulation
emptying
mortgage
oceans
quarterback
removal
mmmm
unimaginable
feisty
dilapidated
##ucking
bulls
conditioner
crue
superficial
sinful
gnome
intoxicated
nefri
mills
memorable
tormenting
rehearsed
shapeshifter
berser
overload
downfall
gritty
intermitt
##alem
domini
booty
tethered
udgd
banners
eater
jaden
##try
acre
seductively
pigeons
rundown
tand
loot
childrens
captivity
representatives
abomination
##idences
wharf
ignite
martel
janelle
cauldron
bair
##mia
##oration
hurtled
coping
relaxation
conclude
neglect
intercepted
conventional
cary
##orthy
fondness
contributed
chastised
jeopardy
##enas
nondes
offending
keyed
payne
reveling
immature
banish
authorized
investments
unimportant
jupiter
rave
taint
agencies
shipment
owens
itchy
##iri
imposed
grasses
scorpion
nondescript
##icas
weirdly
inspiring
ribcage
hastened
periodically
contribute
##struck
klein
##nuts
##rm
babble
ashland
australian
mccoy
elis
cultures
affects
korsten
profoundly
unforgiving
drowsy
##chy
assholes
breh
suspension
aske
clitor
##igod
tablets
ordinarily
snowball
placid
blistering
anden
##acha
diaz
playboy
strengthened
turk
appease
ralphie
incorpor
##imeters
shrap
chord
distances
veranda
weightless
revved
bittersweet
squab
viable
shocks
fidel
70
rodney
vito
##arez
##olome
hare
amends
mailed
##rob
walnut
sarssen
provides
remedy
shrapnel
fused
overcoat
forgave
weighted
stubbornness
slithering
residual
mairi
overtime
##iker
mermaid
hostages
boris
telepathically
prejudice
lidded
ovor
amal
enduring
192
aspir
henderson
uproar
demar
hammock
covenant
chyna
##olomew
##urus
lester
swells
dwarfs
igor
##onto
##through
marveling
horrend
scrum
contacting
disarray
aris
##beard
selfless
inspire
professionally
askew
ixt
rema
scooting
slats
essay
decadent
elsie
jerusalem
##xus
errol
labels
bitchy
fledg
treasured
quizzical
##brew
sully
payments
pickle
rebellious
honda
sentries
sync
beaumont
tether
uptight
##tu
##vals
arson
amma
clusters
forsaken
hump
steamed
##mmet
doubtless
bustled
counseling
scythe
teller
maysie
presidents
fertile
bartholomew
oranges
dignified
pamp
trough
foes
##itarian
reunited
syndrome
##lya
##amele
respite
shuttered
ludwig
quitting
recyc
poop
##mik
##wear
stave
owning
divers
drape
trapdoor
initiative
repercussions
hilda
resided
miners
reflective
joyful
inquiries
bamboo
sofas
sacrificing
haphazardly
unfriendly
chaste
perd
exclusively
disagreement
rauc
explicit
cerise
lunging
mournful
hong
lather
suspense
keypad
superiority
weddings
forked
alonso
overcast
ads
commod
snicker
nasa
##fing
agape
metro
correction
deflect
interpreted
decked
wildlife
schedules
rhodes
cocaine
herded
carlo
firewood
artillery
banking
unloading
shockingly
butters
unob
spoonful
xy
##ouri
duffle
silhouetted
chili
collars
apprent
screws
unshe
snowflakes
absentmindedly
kens
clinked
moz
unab
longingly
niche
snuggle
insecurities
dunk
##10
##omer
##byn
julius
tuning
##aulting
cowered
madeleine
doused
ero
##rac
##pd
##kah
##althy
##cibly
hypoc
analyzing
mingle
dans
nach
gotcha
farrell
descriptions
abbie
prowled
elephants
lannister
bens
tox
bladder
poetic
bugging
accessible
odrade
colette
brant
soulless
fleshy
jinny
leftovers
caretaker
apolly
##laz
elaina
invaders
hollis
humorous
unrecogn
myrnin
sparing
portia
robotic
khuf
racking
withering
yay
##entive
headlong
contours
marvin
invention
knoll
deceiving
splintering
apparition
ixtab
pd
enlar
breaker
encamp
shrunk
mimicking
accusingly
fict
tes
shelly
chamele
hopper
sigma
yeh
honors
activate
lenk
rampant
twirl
genetics
dresden
evade
internally
distractedly
chalice
oatmeal
hars
##oking
foreplay
invitations
malevolent
mountainside
orcs
copp
##bbs
dampened
voluntarily
flirtatious
enterprise
toen
onstage
chee
depicted
guiltily
karla
explorer
##bare
waiters
leathery
railway
strangling
conceive
unintell
dewayne
entirety
whimpers
exclaims
ense
pegged
nearness
developments
slyly
poems
obsessive
mammoth
appropriately
brunt
inciner
affront
trudy
cardigan
kou
##hine
##anks
sodden
isl
##gey
marlene
detour
threatens
appreciatively
shayne
kelp
gaut
tans
graced
desider
traject
annias
equals
seducing
tweed
##oro
##uns
spewed
murgo
cheeky
rhyme
representing
fussing
plop
erich
fredrik
reproduced
ceremonial
columbia
toothpaste
##tta
##ursion
forcibly
tiredly
##eto
sentenced
nicks
discont
accomplishment
obligations
cosmet
quoted
maus
recoil
browns
attracting
richardson
guffaw
teases
miscar
gallon
barstool
jacked
riled
##nton
fees
sorta
geomet
dungeons
roiling
bestowed
informing
bosses
##mois
gisbo
addictive
##list
##string
wobbling
marve
mael
deadpan
##thening
jokingly
keenly
merchand
indefinitely
edible
gazebo
todays
desktop
portals
ratty
imperfect
scalpel
stamina
sabotage
symphony
##pits
misgu
##ramas
halter
viktis
babysitter
mercilessly
rhetor
edden
oiled
ridic
imprisonment
alerac
impeccable
shaping
deni
jaik
##working
pamela
tribute
reflexively
##asi
bobs
robber
ravyn
sakura
paycheck
##vio
##bri
circulation
tint
##inence
##cee
belted
babylon
moonlit
commissioner
lofty
onboard
tench
bagel
squel
misfortune
ether
##eria
atrium
demented
minivan
morose
jabbing
bristling
glamorous
claustrophobic
##oire
##thirst
salina
pauline
astride
cacophony
##yards
##othing
helene
sette
encrusted
literary
construct
consultant
knaps
managers
radios
volcanic
exceedingly
rachael
dine
hanged
vann
posh
warns
soundlessly
spokes
kristin
resolutely
vot
helpfully
pleases
splinter
versa
professionals
traumat
kaleb
ungrate
eunuch
ick
null
shank
mademois
bleach
berit
dolores
rougher
vene
##wit
extric
embank
welsh
printer
antony
exhibition
bacteria
pods
risa
crowe
sparkly
arcane
smothering
##alina
manned
capped
interse
baths
eternally
##blade
heaviness
cupcakes
clamping
clitoris
outstanding
premon
initiation
adrien
nocturn
misguided
amira
administrative
icing
bloodthirst
colliding
tarquin
##iuml
similarities
indulged
unrelenting
currency
##hart
rightly
##ellen
hues
probable
macho
conditioned
blacksmith
##ulum
unbe
forbes
unguarded
docking
##obel
juncture
unpacked
uninvited
treading
brownie
snowm
ports
identities
declaring
lop
treatments
identifying
astral
celestra
precarious
hoop
##fig
butted
huffing
flamed
pallet
discharge
asmo
sovere
alvin
##udgy
darmik
inquire
riches
eloise
prudent
peasants
velvety
tib
vents
##voc
flaunt
##gerald
brazil
inez
liken
divert
gresham
targeting
##comes
alternating
skid
teri
errant
strengthen
unfazed
repulsed
sighted
joni
federation
craziness
exorc
##vity
##otto
liability
keg
chaper
purses
sundays
confronting
linus
mottled
kold
##urrent
opal
relic
candice
rivu
xanthus
mademoiselle
kab
lyght
inexplicably
zandramas
##oz
##adors
lilies
incar
fullness
santino
snuggling
monotone
unintention
##ologically
cowboys
##adox
limitations
prowess
yos
##sted
amph
tyrant
##kyo
seventies
nixon
fitzgerald
dented
lans
wages
socially
windy
brawl
aund
##stead
perv
lurching
athys
##nail
##pen
##aters
canister
unkind
uncondition
earring
burton
daven
portions
emerges
stills
sexier
digit
unborn
##orable
notified
subside
worriedly
personalities
akeld
bungal
wyle
maturity
wracked
solutions
hedges
transforming
nox
malachai
rates
ont
pauls
hassan
scowls
teasingly
religions
plaque
sidelines
dermot
scots
realities
bankrupt
miy
manifested
glimmered
morfyd
assures
imply
jumpy
greeks
##antine
seeker
malfunction
spelling
platoon
scribbling
hicc
newcomers
##cular
shep
athens
overprot
treet
fencing
cosmic
incessant
##hal
outwe
sperm
hari
awards
hight
feud
ashli
donor
judgement
chiefs
acquis
innkeeper
chirping
kadie
contraption
thumps
##staking
chute
busting
eardrums
poodle
lasagna
makin
reconcile
nandiuml
akeldama
omar
toile
probability
earthly
renata
jarred
enveloping
dictate
##imon
broth
guill
skirm
idling
forefront
throes
tuna
thunderstorm
##atelli
photographers
peregr
noncommitt
centur
robinson
tempo
unimpressed
benjy
piqued
##ku
outland
apex
cec
projection
dismayed
emphasize
unhealthy
surreptitiously
chauffeur
nylon
##gi
##urances
roff
specialized
paci
mp
##idon
stragen
squash
motto
heroin
diameter
prompting
sabina
nineteenth
scrutinized
asmodeus
finals
##arya
kits
claus
##iliation
earthy
gleefully
incomprehensible
ungrateful
80
lino
##stock
##bbery
painstaking
intoned
dreamily
##zeb
rotation
announcer
bb
##asted
coils
tellin
##eme
elk
yellowed
accounted
intrude
tumult
gardening
dentist
swanny
dair
vad
##heg
janus
swivel
lak
outcro
prue
mai
greenhouse
liberal
##pheus
shil
##abus
##opic
flaps
perk
accents
replica
unclen
potter
barton
melts
conducting
quantity
knapsack
##ennes
##epr
glows
historian
##hendi
parshendi
einstein
##itte
partition
factors
furs
pencils
issuing
cruising
trespassing
antoine
pard
##idious
stings
flit
assuring
dawning
englishman
stately
##ques
careers
mustard
clockwork
occurring
abusive
fasten
flatter
frosting
lifetimes
43
chrys
quotes
caj
potions
convuls
##tti
fumed
remington
##atham
buyer
regent
##oya
scruff
corrupted
submarine
##onna
plume
giov
sparkles
speckled
cli
combing
pett
lyall
hettar
superhero
wylend
binder
casimir
crooned
astur
improving
shiftertown
injustice
##shire
##azzled
tavia
##alin
mckenzie
prospects
gautier
##upp
chate
combine
betrothed
negotiating
##erable
asap
pasted
wordless
squirrels
refrained
##lash
conno
placement
preferring
languid
powdered
proverbial
fated
transaction
darryl
portfol
lifeline
navigated
saddled
grizzly
warlocks
silencing
charger
encro
ariyal
possessing
jeth
##escri
recount
autograph
caulder
otherworldly
detachment
openings
entice
rockets
owing
observ
percentage
outlines
lepage
jamaica
eamon
heaps
##alus
carriages
lastly
defect
bellowing
odin
celtic
##achus
dialing
fabian
barbarian
athlete
##rrrr
mercifully
##bian
shing
handler
incant
politeness
congratulate
resonated
unscrew
##ndo
unworthy
reminiscent
switzer
multic
innocents
unbuttoning
bjorn
bloodthirsty
janna
##rain
gond
glade
stepmother
cabb
##linn
verbally
unemplo
theod
loch
hubb
digits
loretta
sizzle
injection
teetering
##caps
morales
dispos
niko
##ijin
vittoria
git
beel
enabled
elayne
propag
internship
mythology
thoir
stank
sloped
calmness
potted
blissfully
##pat
portr
convoy
technicians
jolting
makers
disintegrated
gat
dea
everythings
livestock
storefront
wheeling
sparky
korbie
mcgill
cs
blust
illuminate
tersely
cleo
wishful
weldon
fob
destroyer
savitar
influenced
clanged
craning
cylind
cheerleaders
spru
implement
operatives
glimmering
parliam
lettuce
52
cess
chival
downpour
scoured
foreman
replaying
observant
dominate
jeanette
bickering
koldo
##din
overshad
diapers
sulfur
embankment
zan
hebrew
anheg
blisters
unhing
crist
lowell
extinct
torturous
oint
yummy
clinking
##tha
dix
##boats
camar
authoritative
traders
##uzz
robbing
rupt
tyre
extinction
clashed
glenda
gallant
zeroed
jumpsuit
jaelyn
peaches
##uda
drilling
metrop
starry
clutter
dorms
reclined
aha
uphill
talkie
edie
affirmative
deploy
yang
nehe
benign
pinpr
revis
requirement
hopelessness
eagles
caldwell
uneventful
switzerland
dul
iam
nos
strains
killings
undressing
baldur
##balt
##iseries
synchron
goody
lapse
panty
jaylinn
carmich
overdue
horrendous
magrat
chewy
retracted
merchandise
incarcer
##uva
foss
marlow
miniseries
geran
retaliation
outing
distinction
indescri
rudy
##erv
##ands
twitches
mornin
wildfire
strengths
rustic
kyrie
clanging
##uled
indie
spotless
dustin
constantijin
adventurous
toyota
cannons
putrid
eighties
collapses
residue
##igans
##eting
commenced
unwitting
titled
commerce
##ateral
entries
replay
learns
caveman
celebrities
ruthie
toothy
dusky
culprit
washer
puncture
occupying
critically
qualify
carvings
##writer
cine
rations
usa
amnes
birch
purchases
components
rall
smacks
incrim
tarin
blindfolded
bridal
ogling
afore
eileen
plight
unbidden
overtake
exaggerating
mockingly
unoffic
humph
pores
##isd
##staff
orc
intest
namely
affir
mounts
thia
regulations
limestone
jonathon
purposeful
commentary
karzac
sotrakian
energetic
yon
##horse
##rene
finnie
##ials
renowned
wholes
##speople
thorpe
possessively
revolving
lethar
traiven
irresponsible
toed
trask
glides
damen
furrow
##lando
roadside
grogg
raindrops
curtsy
bargaining
rucks
##rect
flooring
mags
exceptions
constell
dangle
enclave
templar
fumble
gany
sauc
marriages
eases
temps
hollows
psi
prowling
mulled
##mal
oraden
coyle
preceded
margo
despond
bronwyn
reilly
sushi
airline
chocolates
arcadian
##ittin
##mede
recognizes
bubbly
hacker
applications
scour
organizations
joffrey
elen
pleasantries
dismant
deceive
regroup
##lys
downwards
amster
newel
warp
ambushed
reverently
fixture
trolley
##anthrop
ipad
vagina
##roken
downcast
lettering
toug
jamming
ranging
maternal
75
jensen
votes
scaff
swish
##pted
unbre
imb
##eko
tours
defenders
acknowledgement
exclamation
kindling
devised
romain
suggestive
fountains
groove
unfurled
schemes
aurel
##wax
elven
insub
thinly
reveals
tinker
dissolving
lament
semic
greets
carpets
##har
beeline
divin
irides
commune
thickening
massachus
ensemble
dudes
wu
##amar
dampness
shameful
obscuring
fictional
extermin
concoction
cthol
trajectory
sable
##ilizing
isobel
preced
detection
randal
preferable
expressive
shafts
gwendolyn
andr
alia
rods
lobe
eligible
fateful
chandeliers
ae
hinting
lint
plow
debut
lazarus
michele
reviews
periphery
renegade
cactus
contemporary
cruelly
ruck
##vantage
leering
##abitch
replen
parcel
sharpening
raina
suburb
sultan
indoor
enslaved
kresh
rina
##enc
stellar
brimmed
danica
suggestively
whirring
ellasbeth
registering
angell
amsterdam
checkpoint
episodes
manufactured
likeness
lumps
submitted
##ouncing
occult
toasted
teleported
massachusetts
lise
piet
##nu
##aved
abram
foresee
creations
rhun
requesting
linens
photography
shirleen
auras
misunderstand
amory
waterfront
sorcery
memorizing
weaver
toilets
parliament
mw
zarya
casts
janie
tendencies
inkling
raucous
ganymede
diction
##amo
glowering
awoken
splashes
sylas
correspondence
reynald
armory
trifle
controller
##which
fellowship
characteristics
applauded
ober
##lave
##anders
##istinct
fallout
condol
duster
trademark
tacky
hatt
kerm
timidly
girlie
bres
effortless
cyb
statistics
enchantment
joker
struct
blooms
subdue
insecurity
extingu
discouraged
banc
atroc
sweaters
ancestor
unnecessarily
sardonic
doct
chom
cobalt
macie
##ovs
tipsy
skepticism
drinker
instruct
winterfell
dit
trembles
sacram
hawthorne
disadvantage
flair
holdings
laun
narrative
dardennes
jovial
newton
idris
bulldo
vulgar
threadbare
##hemia
docked
irate
antiques
masquer
gurgled
pong
brownies
191
mourned
punctured
prettiest
mckean
reeds
underc
##awa
indistinct
samuels
cleanly
mismatched
101
criticism
gats
untouch
##uba
ridc
shapely
dominion
grandmothers
vastly
adjustment
paragraph
encampment
purg
styric
disquiet
loll
##inois
courageous
gaia
accommodations
raspberry
hypnotized
jaikus
armpits
tenants
##incarn
unbroken
blakely
exquisitely
ceremonies
##ulas
arbit
quaking
perfected
undist
cassius
ambitions
faltering
wriggle
vendor
ridcully
bough
gah
yess
marys
whisk
boyd
powell
hierarchy
51
whitt
seab
goodwill
acoly
mystified
dahlaine
synthetic
caster
complement
dimity
radiance
tonic
awn
rah
cland
nero
seaf
cavity
fancied
stip
##ahkan
bedspread
regulars
mortain
magnified
cherie
ruthlessly
mythical
grams
microscope
##know
orion
overalls
busily
balm
communities
proceeding
beware
forensic
##hending
##eremon
slob
morality
kanin
jurisd
##fed
tokyo
shali
believer
producer
critias
uncharacteristically
vil
reincarn
seelie
boll
closets
bolting
hiram
##driver
rogan
grimes
eluded
illicit
genie
starlight
ethics
sloshed
65
decisive
tights
sniffling
graduating
territorial
scrolling
##erty
lili
orth
unceremon
##joyed
researchers
menacingly
zeph
chateau
goli
sustenance
##powered
##aele
arter
peppered
glumly
pals
##itives
cheaper
kidney
merge
germain
hologra
mica
leech
cherek
cockro
corey
reviewing
executioner
ulf
ith
womens
grappling
casser
maryse
resistant
shelley
levine
lorie
bluepr
suella
clunk
##uez
notebooks
stiffening
recommendation
thermal
deployed
carmichael
ebb
printing
##iene
ferns
influential
daft
nudges
##breaker
lamely
condemn
grisly
ranged
parental
stomachs
unicorns
stiletto
enam
stubby
##strum
modeling
tangles
undetected
pamph
peregrine
ji
illinois
falon
spanned
thriving
unfastened
grains
perished
brighten
donated
valentina
octavia
dynamic
chlorien
hectic
##etr
hitching
autoc
eyeliner
azrael
handfuls
scribe
rendering
abnormal
drips
inconsp
jumper
##bane
##adar
repulsive
entangled
luv
divulge
pompous
tys
twine
procl
arrivals
locating
verified
irrevoc
sarene
waggled
hine
sord
suppressing
manufacturing
transmitter
aedan
vise
##lot
##abra
exuded
perm
##avage
ferr
keselo
humanoid
decorate
handwritten
unspeakable
tach
##atur
shre
download
unident
diandra
angst
damaging
sexuality
accomplice
terminated
overprotective
##cence
##igor
booker
garret
battering
encircling
eugeny
rook
anak
suction
##lfe
arom
sensuous
greenery
earths
contribution
superstitious
thrumming
deceptively
##pre
wha
##urers
swap
kaya
intentional
unknowing
pearly
##keepers
conspicuous
interrogate
omen
overjoyed
discourage
empath
unsur
lingers
achievement
thaddeus
vix
matron
begs
anthrop
chucked
dwindling
ston
##illas
emblaz
fervor
karissa
lanie
shriveled
auron
hunkered
exhilaration
unearthly
gur
##llo
macrieve
breadth
ezek
losers
incorrect
swimsuit
incompetent
cider
##heon
examp
canines
cloudless
hypothes
feverishly
meltdown
buddha
##western
eust
rite
##alla
swished
interject
natalia
##uese
audibly
assemble
babysitting
jubal
monstrosity
apprentices
settee
##ayn
lec
##angles
raja
townspeople
cleanup
pisses
presidential
emergencies
foothills
##rition
seers
brag
erad
nakedness
cyc
succeeding
andreas
bluffing
carth
##cos
dogged
polishing
grigor
torped
ringer
intends
deleted
##gent
finances
##derick
deli
precinct
lodesto
giovanni
aided
shush
spittle
##ivol
legisl
wildest
eyeball
smartly
tamar
writhe
prefers
toenails
outf
conster
audacity
feedback
clocks
broader
coastal
motorcycles
crocodile
tinkling
marge
penins
escalated
jittery
melee
segment
deja
##borough
deflected
yor
agile
glaze
##emer
clem
commence
breakthrough
extrem
depot
confirms
sculptures
enigmatic
ander
##aco
dolly
thornton
puzzling
##cre
lightweight
##ignant
erm
dowager
bolton
strategically
portfolio
##itos
delusions
shutter
tango
ajax
olympic
pist
dell
prent
girth
childlike
summary
katana
fortified
corporations
bailed
outbreak
howie
barged
duo
merri
sordid
sic
helluva
petal
donut
unbreakable
robyn
cres
domed
cadmus
bumpy
furtive
##othe
timeline
floppy
mirage
proposing
pancake
crusty
omega
vultures
outcropping
gault
gums
humb
escap
crem
symbolic
redheaded
kacey
buys
recite
parole
velocity
dismount
veronique
freckled
daunting
munching
frannie
anyones
paneled
inquisition
plumbing
##adys
intruded
boutique
##leneck
parachute
confinement
lodestok
ocon
##ea
##owa
knif
cornel
bottomless
misj
examples
anest
dispar
famine
storyt
unde
langley
azaz
rearranged
corral
colleen
##eza
riverbank
beverage
uriah
sizing
##rand
coiling
curts
##aterial
invari
parasite
notions
generate
originated
neighborhoods
lawsuit
resurrection
unintelligible
anson
##ructure
repressed
carpenter
carlotta
invariably
dottie
abd
##eemed
igniting
emblazoned
lago
wann
sax
arist
chested
furthe
petted
cyr
lunar
sacrament
siding
porridge
inscribed
contingent
vigh
unat
consens
haruki
balcon
spoons
sacri
seniors
irritable
collector
appliances
administer
riddles
grubby
fireflies
clamps
tract
##plete
para
merrily
jester
frenchman
junkie
navigation
hanson
petulant
shreve
vigholf
allah
buoy
remembr
besee
unpacking
jd
tacked
thre
straddle
apost
cracker
concub
loras
jostling
pharmacy
shushed
guit
recounted
##announced
clouding
##obi
aerial
lynch
arabic
utensils
mausoleum
gatsby
shreveport
nect
##rail
boister
hovers
hourglass
toronto
investors
compensate
inscription
oral
comprised
metals
druid
bridger
jurisdiction
beheld
frivol
cliche
handic
teary
loit
flitting
mutilated
picket
tyrann
seaweed
##omir
susceptible
characteristic
rodrig
flanking
coordinated
achilles
coppery
kot
lightheaded
##cials
asserted
requiring
breslin
saves
abhor
satyr
stripe
battalion
bellows
discord
rubies
ferris
linoge
##fth
builds
johann
containment
hardship
smiley
appreciating
projecting
gwyn
bundles
undisturbed
rica
##enberg
moretti
panes
techs
tapered
clandestine
consternation
##ituted
avril
embell
stationary
unbal
##hhhh
shooed
enquired
alleviate
furthest
mt
topple
havelock
##agen
processes
nika
mischievously
coveted
depleted
jaded
##kick
myrr
absol
extraordinarily
offsh
acco
sleeper
duvet
rhoan
rulers
kyrin
hq
nola
abne
perci
incentive
imagin
coffins
suckled
kiersten
itzy
bearable
popularity
pews
grolims
lifelong
##otine
soar
emilia
marlin
##cheon
sandal
misgiving
##ophagus
venomous
syllables
dudley
fias
unite
marbles
foundations
##wash
##inia
shag
nebr
looping
shari
caste
distribution
##rof
##rique
buggy
##inesis
##omething
rebuilt
fussed
bungalow
jal
phel
rumbles
unannounced
wayden
badger
nauseated
tsk
bronte
muddled
kitto
audi
ritcher
babysit
sensitivity
abnegation
herman
loans
unity
misshap
maryellen
unfathom
sneering
tailed
dame
##zers
##star
canna
unlim
sentient
irritate
carpathians
rucksack
libid
agility
guise
futures
##clothes
kendrick
cordial
unbearably
##atisfied
nets
##inator
waistcoat
presentable
demean
dazzled
kowi
disobey
obliterated
##ilin
quake
soror
joyce
unhappily
vengeful
coalition
approvingly
##lamp
rewards
specks
warms
quirk
dissipate
herbal
chie
##olgar
addolgar
swears
dickhead
defendant
mandatory
gael
arced
joss
traff
pastries
workings
##enders
ugliness
misshapen
49
toppling
marqu
marrow
cleavage
fearfully
dissu
warehouses
molding
diminish
enforcers
tiberius
portuguese
seeks
##istical
graph
johanna
pinn
waitresses
interfered
hordes
diagnosis
stilettos
biffy
##imore
downstream
emiss
worldly
mikael
strapless
##build
nugg
droop
harassing
sensory
crawls
stirs
sternum
cheesebur
consequently
skittering
phob
lup
triangular
harming
supports
unwind
belgarion
leafy
traitorous
imprinted
anomaly
##fs
chay
##psley
bullies
particle
decoration
erupting
sketched
tansy
fiasco
##gia
revered
kneels
bragging
nymphs
fugitive
jot
rated
sums
overpowered
peeta
undes
scarves
horsemen
blanketed
gawked
amnesia
dek
braces
byes
armstrong
comforts
kenner
lexy
lionel
sensuality
smuggling
nimble
shiloh
petro
beefy
overstuffed
fevered
boardwalk
orchestrated
slanting
##orian
offhand
skunk
recuper
crepsley
ledger
weakest
eons
##ados
alias
exiled
marj
humorless
praet
novice
alchemist
enforcer
narcise
##gates
cuc
fertility
daydreaming
tapestries
dwindled
oats
thered
uphold
endanger
servers
sermon
mistrust
boomer
vendors
mosa
swagger
greatness
paperback
immunity
dividing
randi
indicates
feebly
mcgregor
zarah
treetops
##horn
passers
deformed
businessmen
accepts
jawen
##zebub
wiring
##ario
undulating
threading
laurie
ointment
nectar
chieft
zee
##afe
##bies
##ulity
crass
elector
gallows
ultim
fantasized
flanks
cobblestone
mould
uw
frazzled
crusted
capp
coffees
rivan
##cis
headfirst
instig
reminders
wineglass
incidentally
##fleur
iridescent
unceremoniously
88
backbone
mineral
flowery
reconn
##grave
dental
hustle
impulsively
poth
rookie
elm
##pha
fetal
roasting
cinc
lell
users
dials
magd
cataly
cigars
enormity
nadine
jabs
vandal
xer
orlando
sludge
renting
patronizing
spontaneously
cecilia
##leanna
comeback
stupe
refere
profitable
ghleanna
janitor
##chs
##ignon
antonietta
hallucinating
beggar
brecken
finesse
softest
boxed
urn
restrictions
shimmied
sneeze
trespass
uncharacteristic
championship
coworkers
beelzebub
rodriguez
cobblestones
dung
cobra
snowing
furrows
antar
tiresome
cancelled
##this
##eming
increases
lexus
bombard
gossiping
lynnette
slabs
gargoyles
peninsula
##lake
##reens
skimpy
squish
turt
novelty
hysterics
mccarthy
##hn
shamed
blab
flagg
primed
patent
commando
##ocop
lorcan
clowns
chagrin
##packs
clamber
coded
bras
resili
regis
rumours
nauseating
mosquitoes
purgatory
theon
##into
##ongru
##olia
messes
rere
gosp
rooting
heaves
sangu
munro
blandly
unrecognizable
saucers
unwise
collabor
hilltop
breastplate
coyotes
drakkar
bs
kios
##yt
thunk
deepen
bravo
beneficial
consumption
pipp
##dled
abbi
adamantly
buckling
innue
jemma
##bearing
eyrien
##ilo
incongru
##iffed
rotund
khakis
dislodge
matteo
aversion
kahn
pudgy
upbeat
nobby
moat
circe
celib
congressman
precipice
dool
yasm
swooping
crom
##locked
masterpiece
flashy
hostel
implac
compensation
##cings
##ello
transit
masking
individually
razvan
korean
creativity
hangers
unclear
undeniably
untouchable
seein
headless
##neum
monop
conversion
maximilian
stinky
archangel
henty
yuck
doze
foley
generic
checkout
lapels
assisting
inseparable
courteous
nie
milled
nicolai
dominating
bianka
nazis
crystalline
alli
longsword
doubling
unending
ticks
gooey
teetered
lubric
tamed
##zan
dooms
guardsmen
##naturals
orientation
duplicate
raul
##ordinate
##appy
intruding
vladimir
aphrael
gaultier
tep
sos
bethanne
baldwin
reclining
diagnosed
burdens
crescend
wobble
repent
passions
publication
parasol
robust
erratically
whizzed
##hended
isak
canv
bagged
piercings
wanders
encouragingly
pledged
##esha
chil
alinda
skated
missouri
symmet
camo
supervision
spurted
bloodstained
gawk
tote
##icon
leop
coaches
raoden
##terson
antsy
##anderth
tendons
alligator
saiman
hoot
drastically
camaro
twelfth
channeling
cannibal
obstru
marianne
rejoin
stealthily
rooster
rethink
delved
mamma
zurra
pneum
shins
headstone
madelyn
regretfully
##uca
rabbi
interrogated
absurdity
larson
retrospect
crisscrossed
jj
##kom
neanderth
##igious
hudd
chariot
##loat
tuition
ringo
donate
credential
representation
vinegar
infrared
tic
##nard
##roft
##reated
glower
##uckle
maldor
uselessly
obscen
antisept
sovereign
balconies
aet
sz
##ssed
watcher
##uckers
medics
clover
azure
styles
cripple
alerting
loafers
##eryn
founder
indirect
buries
controvers
devote
cambridge
##odor
tunes
dormitory
ascent
friendships
evasive
regul
##scale
karin
possessiveness
homesick
blaise
meandered
kess
##ben
##urst
nehemia
blob
ladders
titans
troublesome
evaluation
exploit
shunned
chameleon
unlimited
##yy
##orr
reigned
proff
soraya
connects
judgmental
##law
##urried
matts
rhythmically
##cliffe
antibiotics
disloc
assent
brands
wildflowers
cashmere
puzzles
##ramatic
muffins
stacking
privileges
contentedly
skittish
jave
infid
collateral
brightening
affixed
dumbly
flavored
bulkhead
molecules
confiscated
tard
##stro
clones
suraj
##ictive
supporters
##owski
milt
protects
payroll
pottery
necklaces
surrendering
nephews
cursory
allied
manhand
##shift
delia
invisibility
diale
trumpet
##acie
obel
debrief
settings
museums
lapsed
gong
gnat
schooled
subl
businesslike
crowbar
bastion
forensics
snarky
drains
monstrum
damnation
supernaturals
pallid
peanuts
sorority
cincinn
afloat
conversing
wetting
mids
lengthened
rigging
dali
bellies
meaningfully
forbidding
congratulated
richest
khufu
jame
##rious
##abre
hatchet
viral
hulk
cet
arche
railings
axis
pentagon
capsule
disposable
ee
pt
thereof
plated
craggy
splatter
failures
bayou
celina
derry
concepts
remnant
stamping
bypass
unattract
##elines
geography
adjustments
hancock
speculate
dracula
faz
##ooned
##hm
##ws
laure
drily
paradox
messengers
150
bikers
perpetr
convulsing
multicolored
clancy
##abelle
implo
readiness
##hemoth
philosopher
##icut
wors
stoked
trak
##loading
affections
reneeke
harassment
andul
sorren
strapping
winces
labour
macey
ricocheted
gibber
##cation
twang
grants
reposition
catali
sanction
bondage
lamplight
oriental
skirting
rancid
tabloids
incomplete
cataliades
##jamb
##akably
##olitan
girlish
lockdown
donation
photocop
tailor
automobile
masturb
perpetually
mulling
disrespectful
ters
heaped
dez
##umented
slinging
emitting
dribbled
iceland
scandalous
misted
##lap
compel
paints
entities
casing
hassle
jugular
percival
andulvar
##chairs
acoust
wales
imple
camryn
padlock
investigative
determinedly
cheerleading
turbulent
downworld
awash
hiber
scrabbling
scorch
autopilot
android
hispan
rechar
iran
castor
unhurried
constantine
clucked
zedar
jotted
mone
hein
rees
unass
surrounds
mortification
unsuccessfully
upp
##arias
wines
sonof
nashville
attributes
encompassing
kink
##cey
spines
pastel
windowless
trainers
grandfathers
wares
snickers
amaranth
##vik
inaud
spire
fogged
compos
baba
fitness
martyr
guinea
humbled
wilt
##sta
brina
doorjamb
guesses
briefed
domination
taffy
mogador
sponsor
lachlain
adapted
cincinnati
zara
unrolled
visibility
ensuing
vineyard
hendricks
earthen
cormel
manipulative
threesome
ces
behemoth
evernight
phyll
attuned
broker
sighting
splendor
genesis
strategies
lagoon
nsa
##unked
spac
sniffs
rafferty
airfield
tenuous
negotiated
rouge
sulking
brigade
quartz
dmitri
sss
surn
headmaster
marque
pouty
coyly
superstition
lansing
ezekiel
fian
##wire
##enk
ardu
hypot
innocuous
calculation
##jin
sakes
remons
charter
panicky
maryland
tremulous
##castle
delete
davenport
##stons
firstly
##lington
metcal
richly
sticker
accessories
anonymity
nita
stel
perverted
hyg
thumbnail
jessamine
incredulity
azale
vigorous
painkillers
metcalfe
vika
wading
##eau
##stice
armpit
##ricting
degener
clientele
mariju
gibson
harbored
subterranean
dinged
##eers
##bumps
reent
lolled
ferret
satisfactory
heroine
selfishness
torchlight
oooh
baltimore
##bars
brunch
patrice
wilf
kidnappers
##birth
##iation
##inari
heh
teg
cleaver
motherly
monet
nursed
obeying
troopers
tarnished
gadgets
cower
rer
stuttering
leav
scoops
pratt
disfig
avid
unfathomable
spong
query
preamble
appalling
##ilde
pasty
normalcy
achingly
clerks
pallor
leyna
psychiatric
lumbering
horatius
ig
shied
blight
grail
steals
talkative
##laus
bandit
astounding
qualms
unhinged
fou
enders
numbed
karate
cherub
crescendo
marijuana
##wine
gladys
standoff
sleigh
poses
cowards
fleece
flawed
pyramids
##kinesis
##sthe
overp
twit
firecr
goddesses
journalism
overreacting
cds
nal
##lady
##vance
##eri
andie
enrique
##ologies
striving
civic
shyness
feasting
navigating
orphans
pewter
mathematics
##irie
##opened
quince
informant
connecticut
stems
ponies
indescribable
ao
simpson
redou
citys
garbled
despicable
reverted
drummond
bereft
kro
sow
handhold
quiz
goings
crombie
humility
thirteenth
tarab
disconnect
monumental
democracy
cag
##block
harem
brewed
highlands
burrow
townhouse
juke
existent
contractor
geneva
lumines
xypher
rousing
vanc
wasp
smel
cowl
measurements
mythos
martinez
antiseptic
wess
swel
factories
fisting
unpre
impulses
lavina
daneel
##icans
backpacks
blueberry
devina
camper
offerings
raptor
revive
beran
unshed
scuffle
wendell
46
krie
default
vegetarian
cowardice
loner
attributed
##lishing
##iless
##aceut
protectors
daxton
pups
knowledgeable
communal
sedative
hawkins
possesses
shackled
satellites
overhang
harsher
tock
beards
rearing
chipper
peppers
chamberlain
ultras
prairie
teachings
dictator
stacc
remod
hairless
drills
eleon
horsesh
commonly
hosting
transferring
kand
lir
##main
allure
watt
endearment
hawksworth
beaver
millicent
skiing
abundant
sloshing
undercurrent
libido
izz
##rative
coales
gud
madge
depress
meddling
batya
fortnight
cocktails
selma
speculative
merlotte
mayhap
schiz
woodland
benevolent
disembodied
condolences
hab
whoops
##asting
##ellan
charmer
terwill
generously
prede
politically
outlaws
genetically
viscount
resilient
pecs
corks
confid
settlers
necessities
bulletproof
clasps
sobering
taser
accelerating
dolmant
spurt
fishermen
yas
##saw
##pace
##atters
inked
banded
gavril
wynn
rejecting
catering
pharmaceut
bawling
provocative
commend
trader
globes
economics
tides
##otle
jody
visage
birthdays
selecting
vetinari
yogurt
arendia
credentials
beranabus
roving
lotus
entra
floorboard
reciting
atticus
desolation
rivulets
kermilla
rau
hekat
alorn
agric
plots
scouring
emblem
helper
snipp
magda
streetlight
posse
hedden
dimp
flowered
subconsciously
reverberating
ingrained
steffor
marlowe
casserole
sublime
chanced
underway
informal
norris
electrified
experimenting
parrot
neglig
smelt
colorless
speedy
cameraman
bricker
soapy
repairing
infatuation
seafood
gaming
saira
nog
discrim
routines
luxa
prostitutes
unconvinced
gully
coer
erasing
histories
teeny
cooperative
vases
golem
clank
softens
excursion
smokes
##odox
valiant
uttering
##they
hoods
ornaments
scheming
gibberish
noo
blistered
pilcher
jaxxon
volunteering
administered
resourceful
bim
brou
staged
unseelie
hallucinations
disinterested
doolittle
terwilliger
oracles
elsp
decan
purge
gunning
utah
macabre
fato
storeroom
tav
##isand
##irnoff
delaying
inhales
vibes
gurgle
jia
##regn
##llis
downing
phine
retiring
camis
telekinesis
competitors
prague
princeton
participated
unraveling
aundy
chops
lightness
shortest
engineered
interviewing
indulging
groggily
liars
##ako
talbott
jennings
gathers
battlements
succubus
mentions
brandishing
prevail
vikirnoff
photographed
poole
nourishment
##aic
ananda
greys
quickening
trund
provinces
raccoon
bashed
kiel
mitt
inept
cobbled
callused
##pshire
ado
restoration
siri
solstice
sells
wilted
heirs
bullying
staccato
gist
vista
bellamy
superb
cyber
carpeting
lasci
silhouettes
sullenly
doomsday
rightfully
stocks
trendy
pretentious
imploring
smearing
thrive
jeopardize
templars
prosecution
boisterous
pharmaceutical
agricult
zuz
##heric
trades
mutant
salve
immari
geary
goosebumps
contrasted
vitals
prestigious
unsheathed
dour
pension
scathing
undying
proceeds
ottoman
nebraska
ritcherd
latham
##inately
giorg
wolfs
tankard
troph
humiliate
kear
##jar
##atched
milking
forgets
requis
foreheads
operational
accentuated
coastline
bridie
elys
gant
##makers
neomi
ranked
flecked
tae
propelling
stiffness
unlit
unsurpr
tarabotti
loped
chapters
groupies
##restrial
stinks
bibl
fungus
remembrance
##hab
timo
##xtures
##chee
pathways
arouse
negotiation
grainy
tsked
snugly
prissi
traumatized
bins
yow
##xing
formulate
revolting
roug
trinkets
bach
nath
##thorn
drunks
raided
wheeler
flutters
clanking
pavel
sanctum
glacier
demarco
jethro
fusion
spires
capability
branding
accusatory
hippie
flabberg
intestines
vash
##lords
finley
monolog
towed
lyka
cruised
barbaric
bronzed
spasmed
95
avert
saga
voye
fins
druze
produces
calculate
nonchalance
infiltrate
workin
deference
penora
gend
deliveries
kelvin
analyzed
commissioned
migraine
continental
vancou
unopened
steed
mindful
godmother
docile
mariah
stemmed
pennies
rhetorical
pird
rile
##mout
##lied
thames
shitting
exem
callista
trend
barbe
##love
##plant
christie
bullied
candor
##ritus
fenced
daxel
yves
stagn
goon
suzie
usur
##coats
catwalk
refocused
duly
birthmark
lani
grieved
simmered
honeys
ailia
giz
##care
##osexual
severity
squads
angelique
kristine
weighs
modestly
trophies
composition
finlay
alexion
mistral
filip
fetching
vibrates
nocturnal
heinous
##amer
rollan
samara
wireless
foreigners
journalists
premonition
livy
fla
scaly
waxed
elod
assimil
lowe
merrick
scotty
broadcasting
jingle
tumbler
phineas
gains
pending
standstill
damning
collide
charlies
pawing
dagd
icu
lulled
scooter
pher
##vre
##grove
##klin
##ilib
lok
trudging
runa
gusts
paralysis
enlisted
smattering
rainbows
bercel
regional
vasili
strutted
##powder
bercelak
teab
giordan
basking
mercury
ruffling
dara
rielle
##fly
##asa
##orked
avon
extre
medusa
absurdly
advocate
##yah
##aso
##thon
swishing
##ivate
lesbian
##dorin
lelldorin
upscale
manne
offence
swapped
dimness
henna
costa
scoots
occupant
claudine
cosmo
gramma
crippling
##azaar
peacock
sizable
impregn
floyd
quickest
##scape
manageable
discoveries
cindere
rocketed
queensland
rating
shanna
roach
cola
librarians
sloan
implored
recruiting
nellie
evacuation
impotent
predecess
vancouver
ail
ebbed
##nos
##onous
##cedented
lug
uncur
bastien
margot
boiler
mules
##gaz
intensive
embar
karina
brienne
##annas
starter
suffused
pinches
haunts
flattening
unprecedented
elspeth
zuzana
bade
rv
teeming
scon
##zzled
scarier
documented
marek
gypsies
beggars
##oras
concier
##zza
cellular
responsive
universes
ripper
unattractive
##owulf
leered
blotted
barman
##onds
baller
vanqu
weirdo
allowance
lasers
scurry
delicacy
huffs
##naro
crazier
ranting
##tube
goliath
calloused
cutters
promote
defying
gentler
savvy
cottages
eyelid
fairytale
lashonda
pelted
gourmet
unn
preach
membr
richmond
misle
screwdriver
instantaneous
bombarded
rivals
ascending
hiccup
conductor
gandalf
reopened
beowulf
tiredness
judson
gloating
arresting
borys
ooze
chunky
hekatah
cian
jasons
##aderie
##esting
##ousse
estr
homest
stealthy
sketchy
hew
##sec
brash
frontier
besp
latex
singsong
flabbergasted
kris
atomic
mocha
quoting
elton
rapp
brok
publish
urgit
azurd
sorrowful
cabbage
azurdee
ged
macd
unchanged
harkat
elodie
hos
kom
##cco
overbearing
marse
snoo
##ieties
doubly
booking
facil
alternately
ghastek
rationally
theoretically
holographic
##overs
##ardo
surfer
resuming
panama
solidified
toiletries
sorcerers
conglom
burglar
camaraderie
yu
frilly
mojo
aracia
grumbles
fronts
##shy
hurtful
detritus
squints
hugely
slamm
shredding
mouthing
##cont
##stown
teas
arum
emac
arcs
resentful
retaliate
##rising
frick
##isson
delve
polic
errors
cellphone
sandstone
blindness
mums
octop
ornament
nicolette
disobed
constrict
thura
arek
##assion
hoist
breeds
raiding
barber
burrowing
cloths
channie
fruitless
bronco
arkadin
concierge
kater
##anis
stint
progression
##ggies
trehan
astute
inflection
ruckus
andrus
roped
##blek
merging
indicator
researched
credibility
adrenalin
crisscross
reiterated
turtleneck
54
cic
oar
pointer
belied
shortage
artie
sharpness
barnabas
taunts
zoom
oversize
kiyo
slutty
articulate
ix
##terior
##rophic
clack
vending
courting
mapped
tenoch
unfl
epide
ushering
insensitive
aristotle
hinge
zem
hewn
beech
trident
unve
##ggled
resorted
##nea
darien
lucrative
woolen
infernal
misjudged
jand
soo
##mination
thib
andais
notify
buick
gunnar
braver
millimeter
ripred
##oxide
vampiric
sledgehammer
spindly
yum
##crew
spouse
spades
resh
footed
preposter
spluttered
ashby
impossibility
gorilla
gullible
nagged
elroy
kinder
invigor
topside
flea
seaside
gennaro
filters
metaphys
reconsid
postpone
maud
beeps
mango
pretends
adrift
thwart
impersonal
awning
##wel
comat
##orman
##ifier
homer
networks
fluent
exaggeration
executives
daisies
spouting
rambled
##urring
moff
gunt
##emus
phara
picky
##ovable
maneuvers
snotty
abras
hideout
reservo
hypocr
brusquely
ultrasound
##cker
feelin
melisand
titanic
magdal
greer
##ogram
rache
##marked
intricately
nigh
oils
trog
##fa
##jured
leena
scrou
elix
mouthpiece
superman
fortunes
crisply
speculated
apparatus
nehele
unbalanced
##eep
plotted
disarming
walters
applies
marches
maxine
sausages
hypocrite
nicked
backhanded
manoe
carb
adler
minnes
jerrick
##offs
athos
airplanes
##vic
smudges
conform
balked
archaic
gordy
jus
keening
walsh
babes
affinity
arturo
flyers
conduit
fanci
hamper
chugged
sprouting
dairy
sonofabitch
cillian
toothed
perkins
irons
misinter
bananas
fantasizing
poseidon
lestat
fablehaven
turkish
hattie
hil
kizzy
pc
boff
prefect
warr
wring
unclas
browning
volt
unsaid
riots
hampshire
glittery
jarrod
bindings
thwarted
indulgent
forfeit
dictionary
pj
##idium
##ethy
richter
blondie
scrabbled
derision
overseer
mallorea
weirder
cecily
stamps
reic
teal
minding
assed
windpipe
humve
choppy
freddie
erupts
thrived
cinderella
isla
##ibles
##strate
debil
granby
bolder
borrowing
krystal
magistrate
voting
##wart
frak
##lful
quot
enable
relics
subscri
tenses
apologise
sedai
venk
ike
sacha
itiner
friar
serp
gunpowder
##imentary
basilica
demolished
chave
swath
handset
blackwell
thrash
davos
spoiling
commenting
##holm
abbott
disciplined
bh
##worm
##wolf
##swell
catfish
targ
navigator
dah
##may
##god
##uration
quil
prospective
mega
fainting
zealand
naturedly
pess
prisons
snoop
vacations
medicines
pedestrian
unabashed
misha
##oway
##gno
torres
seventeenth
rashel
rapture
kaleid
sneezed
everlost
zor
##good
##icular
redder
##loch
borderline
hackles
lecturing
feign
slink
expon
curator
##eka
wilhelm
jeanine
outwardly
contradiction
##nasium
pitts
semicir
##vian
dianna
evaded
countdown
informs
ethel
dagdron
pharaoh
teth
woof
trout
wails
darwin
sulk
bf
lute
herds
prided
takeout
##berty
snare
probation
schooling
honked
gymnasium
hinev
misgivings
53
##mies
##cade
moot
surrog
hairst
humank
charitable
angeline
bearer
temperament
brutus
eruption
imperceptible
pentagram
dynasty
catastrophic
indulgence
tersa
mire
##real
insc
youtube
teard
slowness
daybreak
morsel
julien
aristocratic
brochure
catalyst
##iens
##organ
##apha
##quately
booke
postcard
smartass
departments
nathanial
pandemon
emeralds
comatose
##21
##onal
jodie
talbot
assu
electro
featuring
scragg
christiana
longh
shamelessly
oaths
befudd
perilous
pherom
hither
loathe
snigg
garish
thumbing
wanderer
##lamps
##fles
alvar
poisons
collared
dispel
recollect
pansy
aftershave
rewr
pha
airship
thirds
honking
governors
custod
bulger
prediction
andarion
guitars
##tus
forte
teaches
grotto
disarmed
phony
incub
regime
furrowing
annas
puking
pushy
gustav
theatrical
invaluable
pail
##hened
swed
prote
lightsong
ensore
coordinate
homestead
policies
kheld
##ndan
toaster
blub
joie
##ogical
puberty
taill
##romagn
skyscrapers
kheldar
relating
calories
fifteenth
vern
senor
platforms
unhappiness
fatigues
outfitted
manoeuv
pining
heals
livel
mural
milady
derel
automated
impervious
rebuilding
nostalgia
##ete
forrest
solin
ambig
stringy
trenches
hawaiian
relinquish
falonar
##haw
caly
bedpost
minna
traips
geld
suites
carlton
phenomenal
pruett
decrepit
unsuccessful
kia
pter
abode
swab
soundless
buckles
habitat
patriots
erika
scound
cramps
breakers
ramming
marsali
suffocate
livin
roadway
donatelli
shelters
croiss
youths
orchid
valefar
sci
disable
kisser
painless
##iba
paxton
musings
princesses
washroom
selves
##aaa
methodical
burdened
aurelius
whiny
##iris
manure
pokes
relg
##inski
grays
weirdness
macallister
branched
stereoty
tiara
##buds
theodore
obelisk
tash
stitching
##elike
conception
amethy
editing
effing
sprinkling
coincidences
abandonment
gilt
liss
zones
magi
penance
darice
basia
sneers
##who
curtsied
humankind
bots
piggy
suede
muld
careening
famished
continual
##ccas
limbo
rifled
thundercl
tolnedran
epitome
hermes
##ssard
firms
trav
funer
townsend
paulie
cartel
impercept
180
alternatives
marginally
preposterous
kher
##isi
##kees
fender
untamed
budding
babbled
suitably
courtes
rams
gangly
oisin
pampered
##pto
herbert
timeless
heartedly
##onsequ
cynic
georges
fundra
foothold
hottie
och
wen
zam
##core
##warm
doren
scoring
trac
hoff
snuffed
severing
napping
oppose
misbe
buyers
tentacle
berger
uninterested
dast
fick
impet
geograph
vitality
begrudging
##su
loosed
brice
canary
kneaded
quicken
undec
savag
treadmill
lectured
dasen
ultimat
emaciated
##anet
atone
##elic
slum
realisation
easel
extras
gradual
engulfing
cortez
jiggled
morpork
##isle
wouldn
##emie
dios
morgen
penchant
chainsaw
aggravation
pummeled
hyperventilating
kouwe
reichen
nomi
##wich
tohr
##chos
##iler
unapp
jendan
harbing
elevent
cleaners
daniela
mcd
dispassion
suspecting
unzip
teap
mohawk
impose
whitey
fucks
whooshed
broussard
camisole
kassie
noooo
howell
equilib
savages
wester
tahoe
kost
puss
deserving
electromagn
beretta
octave
rampage
sherlock
##uchik
ancestral
addicts
crazily
ctuchik
dimpled
jp
##fu
##issas
rungs
sentiments
regretful
turb
dwarfed
recipes
meandering
immigration
waddled
minnesota
##yi
##athetic
exce
grub
blackout
paolo
animalistic
hughes
buzzes
educational
smears
aldur
bobbi
ery
niles
##comb
conan
##bek
magister
tywin
mutated
boob
listener
norse
senators
mimbre
crispin
pivot
biblical
druzeel
drell
##tical
##78
whel
julianna
moderate
grooves
timbers
willard
amys
attain
grem
milan
danish
##zzling
ryans
substant
disrupted
fianc
nevin
roiled
arvil
farf
invo
laughable
purest
rebelled
suckling
skillet
architectural
revolutionary
hort
luring
##20
pox
belg
morrigan
wrappers
annabel
strolls
##escence
rudeness
##irth
downloaded
maylee
##amese
singers
sprite
embry
racist
pantheon
participating
cackle
waffle
lachlan
unshaven
eleventh
hooted
##ailable
##sha
inconsequ
firepower
magicians
chatty
lunches
hindsight
taco
omelet
mathematical
jada
tyson
##gel
meera
##osph
nothings
dracon
cleop
impish
retic
aww
strait
shits
physi
homicidal
incantation
unwittingly
##num
didna
alg
viscer
splot
malin
travellers
festive
christophe
proffered
seor
lov
evils
woody
wilds
nickel
ravan
garrick
mushy
counterpart
lykae
##cas
##course
droned
detained
vanishes
volition
##00s
grooms
paddled
plywood
wol
contri
##dspe
aleister
sensei
easygoing
nests
annoyingly
emailed
discernible
undertone
squawked
imperceptibly
kare
sals
##kol
##udi
charis
detested
cleanse
imported
popul
jeffery
translator
stunted
prosperity
hoops
chum
chaz
brann
slashes
stele
ceres
diners
entrusted
lyon
baya
navarre
carniv
unavoid
staunch
kiz
clause
howe
temperance
##worlder
stimulation
syndicate
parameters
inscr
##angler
reducing
accessed
indisp
marketplace
gaudy
eclips
intolerable
##enta
lik
backdoor
loudspe
schoolgirl
##lander
injure
feroc
exchanges
contractions
ravenwood
whiteness
fulfillment
warranted
kash
##oza
blanche
opulent
hurries
badges
insidious
condens
puny
holler
gabriels
nuzzle
overtaken
inebri
##assemb
cawley
kav
pion
emt
surges
consul
kingston
casinos
focuses
galactic
complication
revolved
trolloc
tribun
melodramatic
mosaic
pessim
##enstein
meats
##allo
intermin
stupidest
##meas
rubbery
sugary
tandem
sere
##ocus
##late
[...]
